{
    "Ã¼yordu": 115970,
    "Git": 47662,
    "UGHT": 73282,
    ".frame": 9318,
    "Behind": 74742,
    "categories": 15865,
    "Ã©gorie": 97193,
    "(\">": 64953,
    "446": 20385,
    "Ġà¹Ģà¸ª": 109643,
    "Ġadvertiser": 87386,
    "ĠÙģØ±ÙĪØ´": 105229,
    "?ĊĊĊĊĊĊ": 68664,
    "PERTIES": 46787,
    "cession": 26540,
    "ĠìĿ´ìľł": 111436,
    "ocup": 73225,
    "à¥įà¤£": 103156,
    "Įĵê¸Ģ": 109049,
    "ÑīÐ°ÐµÑĤÑģÑı": 119270,
    "Ġavan": 120687,
    "\"$": 34832,
    "uz": 5308,
    "|-": 51954,
    "moving": 66215,
    "ĠscrollTo": 89395,
    "-fat": 64354,
    "ators": 3046,
    "/authentication": 91677,
    "CESS": 5359,
    "ĠCENT": 63063,
    "OURS": 60373,
    "lemma": 9830,
    "Ġabund": 23325,
    "Ġnails": 40943,
    "etter": 22120,
    "rock": 21161,
    "_App": 37217,
    "ItemId": 59039,
    "ĠÏĩÎ±ÏģÎ±": 121720,
    "ĉĉĉĉĉĉĠ": 31116,
    "ëŁī": 104690,
    "Ġactualizar": 79729,
    "(players": 72339,
    ".ToString": 5533,
    "ĠMalone": 84171,
    "-driving": 60811,
    "/pay": 73523,
    "Ġopenly": 30447,
    "ĠASCII": 40416,
    "(iv": 72814,
    "-generation": 43927,
    "696": 23578,
    "Ġrevert": 42228,
    "à¸łà¸²à¸¢à¹ĥà¸Ļ": 119301,
    "ç¼º": 113301,
    "ATES": 31404,
    "ĠlÆ°á»£t": 122864,
    "ĠØ£ÙĥØ¨Ø±": 126309,
    "ĠGU": 46372,
    "Ġmnoho": 112235,
    ".EX": 23208,
    "ï¼ĽĊ": 60317,
    "ĠMED": 52699,
    "ĠRidge": 35305,
    ".WriteHeader": 70894,
    "ĠSpell": 30180,
    "ĠÃ©galement": 44767,
    "uger": 59520,
    ".MockMvc": 72108,
    "æĶ¿": 75513,
    "_dropout": 75705,
    "ĠnÃło": 102176,
    "ĠÎ³Î¹Î±": 101046,
    "Ġtests": 7177,
    "-MM": 19013,
    "OUGH": 84833,
    "marshaller": 53641,
    "Ġfossil": 31376,
    "ĠMID": 70884,
    "Ġlx": 64344,
    "_roll": 58678,
    "ç»Ĩèĥŀ": 125951,
    "Ġnebyla": 123101,
    "\"]))Ċ": 45835,
    "elix": 68818,
    "Ð¾ÑģÑĤÑĮÑİ": 122238,
    "ĠSlayer": 75723,
    "ĠTrick": 70325,
    "werp": 95419,
    "ĠAdaptive": 87508,
    "Ġ\",": 3755,
    "ĠJSONException": 85790,
    "Ġhearings": 45348,
    "Ġpreced": 16599,
    "Cou": 69310,
    ".Misc": 96838,
    "ĠHAR": 87588,
    "Ġreign": 31402,
    "ĠÐ·ÑĥÑģÑĤ": 113924,
    "ĠÐ¼Ð°Ð»ÐµÐ½ÑĮ": 110417,
    "Ð½ÑĸÑĨÐ¸Ð¿": 121475,
    "Ġfailure": 8060,
    "Ġç®¡": 114611,
    "Ġnostro": 84669,
    "Iterable": 51735,
    "ĠÐ¸ÑģÐ¿Ð¾Ð»ÑĮÐ·ÑĥÐµÑĤÑģÑı": 119190,
    "nst": 58818,
    "Ġæİ¨": 121157,
    "ptal": 120595,
    "ĠHulk": 61946,
    "aber": 44239,
    "Ġtasar": 107592,
    "ĠNN": 45778,
    "ĉERROR": 89397,
    "('</": 74572,
    "åį°": 104371,
    "ÐµÑĢÑĤÐ¸": 121924,
    "Ġdna": 76434,
    "ETY": 69484,
    "EditingController": 44264,
    "Ð°Ð½Ð¸Ñı": 39280,
    "Ġpeu": 28800,
    "ä»¤äºº": 127840,
    "ĠJsonConvert": 39967,
    "Ġdrinking": 16558,
    "RequestMapping": 14457,
    "oloji": 115012,
    ":Register": 66439,
    "UrlParser": 81393,
    "ĠSu": 17360,
    "_discount": 43979,
    "773": 23267,
    "ĠMandela": 88430,
    "Ġofficials": 7510,
    "ĠAnge": 11234,
    "Ġà¸ķà¸£": 125500,
    "RA": 5726,
    "_rem": 19744,
    "_blank": 57203,
    "Ð¾Ð²Ð¸Ñħ": 106521,
    "è¦ģæ±Ĥ": 105318,
    "è½¯": 65372,
    "Ġ!ĊĊ": 25782,
    "ĠnÄĥng": 101329,
    "ĉct": 90316,
    "ĠSous": 89578,
    "ĠBazÄ±": 121239,
    "ĠMAN": 26819,
    "ĉsession": 26109,
    "aaaaaaaa": 70540,
    "640": 14033,
    "oving": 9308,
    "organisms": 76991,
    "Ġsupply": 8312,
    "ĠHUGE": 73756,
    "ĠMaul": 94301,
    "ĠSEN": 85907,
    ">x": 29357,
    "ĠNotice": 25773,
    "gre": 15893,
    "Ġdenn": 53039,
    "_PARTITION": 92764,
    "ching": 28075,
    "Ġvitality": 75716,
    "ĠÐ¿Ð¾Ð´Ð°ÑĤÐºÐ¾Ð²": 120913,
    "Î´ÏĮ": 112615,
    "Ġdáº¥u": 112917,
    "ĠÐ¾Ð±Ð»Ð°ÑģÑĤÐ¸": 104952,
    "ĠMiracle": 77064,
    "Ġtub": 15286,
    "ruz": 63423,
    "Notice": 35293,
    "ivr": 58866,
    "ĠDoÄŁ": 105580,
    "ĉor": 82266,
    "Ã¤d": 31975,
    "ĠSort": 16347,
    ".TrimSpace": 91890,
    "],$": 70006,
    "Ġwarnings": 19530,
    "Ġcalculations": 29217,
    "Ġgradual": 53722,
    "Maximum": 28409,
    "Ġä¿®": 127426,
    "Ġkolem": 108708,
    "133": 9423,
    "ĠFran": 31925,
    "ulse": 17660,
    "unlikely": 56113,
    "ĠCrit": 34307,
    "uppen": 90197,
    "assed": 60104,
    "Ð½Ð°ÑĤ": 107220,
    "Ġurged": 28932,
    "Ð±Ð°Ð²": 110289,
    ".='": 84755,
    "ĠLZ": 95580,
    "Ġdu": 3930,
    "findOne": 45481,
    "(props": 9524,
    "ĠPortsmouth": 87670,
    "Ġmember": 4562,
    "Ġamalg": 90865,
    "Ġthy": 26236,
    "ĠÚ¯ÙģØªÙĩ": 113987,
    "Ġuzman": 114138,
    "Ġtelefon": 43250,
    "Ã·": 123052,
    "Ġà¤ĵ": 103796,
    "¯¿": 113594,
    "Ġexpans": 40014,
    "ĉu": 10905,
    "ĠToledo": 73377,
    "_handles": 69117,
    "ãĥ¼ãĤ¹": 61398,
    "ĠTalent": 55607,
    "Ġtes": 51309,
    "_ssl": 49310,
    "Cookie": 21265,
    "rarian": 96020,
    "Ġrecurrence": 76293,
    "lda": 74526,
    "Vision": 69162,
    "Ġtreason": 79359,
    "UED": 70267,
    ",c": 10317,
    "(tableName": 62865,
    "ĠKeyCode": 66252,
    "Ġcarbonate": 84443,
    "Ġdaytime": 62182,
    "Ġsonu": 127485,
    "Ġtelefono": 63530,
    "?âĢľĊĊ": 106959,
    "Ġê²ĥìľ¼ë¡ľ": 111590,
    ".reference": 51613,
    "ĠUIBarButtonItem": 54602,
    ",:": 8353,
    "criminal": 99495,
    "Ġtakdir": 121034,
    "ĠBÃ¼yÃ¼k": 109459,
    "ĠFormer": 33600,
    "Ġsunset": 44084,
    "ĠCome": 15936,
    "(Boolean": 41069,
    "Ð½ÑĸÐ²ÐµÑĢ": 110320,
    "Ġhesitation": 65437,
    "Ġmulticultural": 75416,
    "Ġstrictly": 26549,
    "ĠBrowse": 42812,
    "Integral": 67264,
    ".chat": 27215,
    "ĠÑĢÐ¾ÑģÑĤ": 110391,
    "]}Ċ": 24333,
    "ĠMitsubishi": 79653,
    ">',": 20150,
    "ĠÐ·Ð°Ð»": 104103,
    ".Information": 50339,
    ".docs": 72439,
    "Stone": 46960,
    "=_(\"": 92447,
    "REDIENT": 96494,
    "FG": 12270,
    "Workspace": 47081,
    "oz": 9700,
    "Ġfishes": 95461,
    "ĠÐ¿Ð¾Ð»ÑĸÑĤÐ¸ÐºÐ¸": 125629,
    "ĠÑģÑĤÑĢÐ°Ð½": 119641,
    "ĠEdison": 74876,
    "(kv": 91365,
    ".localization": 77863,
    "iveau": 40319,
    "htt": 97436,
    "Charts": 65978,
    "Âłc": 117155,
    "ILLS": 76184,
    "_ETH": 80767,
    "relude": 86168,
    "Ġlyr": 86337,
    "ĠOTHER": 10271,
    "@interface": 12364,
    "Ð¸Ñİ": 111423,
    "quota": 93704,
    "isinin": 107718,
    "Ġrestaurant": 10960,
    "Ġcollectively": 45925,
    "House": 29707,
    "Ġuart": 47968,
    "Svg": 64506,
    "qp": 33863,
    "ĠBerg": 31782,
    "Ġnonsense": 41902,
    "Ġà¤ľà¤°": 105799,
    "å¾Įãģ®": 123470,
    ".Stream": 34408,
    "_CONNECT": 34562,
    "vÄĽ": 101132,
    "XB": 60372,
    "ä¸Ģç§į": 120143,
    "ĠÐ½ÐµÐ¿": 103439,
    "fully": 3725,
    "Ġvad": 71952,
    "eed": 12320,
    "Ġpathlib": 54259,
    "ĠPossible": 37207,
    "Ġsrand": 69368,
    "ÐµÐ½Ð½ÑĭÐ¹": 106253,
    "Ġà¤ķà¤®": 102359,
    ".text": 2858,
    "ĠMÃ©d": 98490,
    "Ð°ÑĢ": 17721,
    "$http": 92756,
    "åĶ¯": 113723,
    "Ġcin": 8628,
    "ĠÑĤÐ°ÐºÐ¾Ð¶": 103025,
    "ĠtÃªn": 105197,
    "Ġpneumonia": 69329,
    "Äĩe": 56494,
    "Ġclosely": 15499,
    "Ġscrimmage": 99276,
    "ĠÐ´Ð¾ÑģÑĤÐ¸Ð³": 126540,
    "Statistic": 94114,
    "agnostic": 12219,
    "axon": 52936,
    "-town": 84003,
    "åıĪ": 102420,
    ":mm": 20737,
    "Ð¾ÑģÑĥÐ´": 103602,
    "edd": 54637,
    "(theta": 29078,
    "ĠObjectOutputStream": 98886,
    "ĠMultiply": 72159,
    "ĠØ§ÙĦØ³Ø¹ÙĪØ¯": 113165,
    "Ã¤chst": 94075,
    "ç«Ļ": 71890,
    "Ġdubna": 116519,
    "sville": 51028,
    "<Cell": 99893,
    "hour": 25704,
    "Ġbetting": 26243,
    ".Sprintf": 17754,
    "Ġcareg": 50371,
    "âħ": 71567,
    "ĠWalk": 12839,
    "Ġallow": 2187,
    "Ġdeleg": 20445,
    "-method": 51397,
    "_SRC": 30509,
    "ĠStamina": 95372,
    ".section": 30268,
    "DidChange": 97449,
    "embedding": 95711,
    "ĉĉĉĉĉĉĉĉĉĉĉĉĉĉĉ": 31811,
    "Ġquarter": 8502,
    "ÏģÏīÏĢÎ±": 123994,
    "ĉĉĠĠĠĠĊ": 89966,
    "377": 10898,
    "ĠFrm": 93095,
    "Ġtom": 10390,
    "(template": 31063,
    "ĠÐ¿Ð¾Ð±Ð°Ñĩ": 127781,
    "ales": 3916,
    "_integer": 32825,
    "ĠÐ¿ÑĢÐ¾ÑĨÐµÑģÑģ": 110793,
    "ĠTÃªn": 122809,
    "(LOG": 25892,
    ".ĊĊĊ": 4286,
    "å®ĺç½ĳ": 107925,
    "Ġstranger": 35058,
    "Domin": 72641,
    "reddit": 38033,
    "equ": 26378,
    "Ġbá»©c": 118393,
    "ĠPep": 54086,
    "ĠSCR": 77800,
    "_VERSION": 10907,
    "ĠApache": 9091,
    "uales": 41852,
    ".elapsed": 78582,
    "Ġprost": 36321,
    "inance": 25387,
    "bÄĽ": 101348,
    "-txt": 99373,
    "erson": 1293,
    "queues": 77189,
    "scatter": 71350,
    "ActionBar": 35759,
    "ĠHelen": 43881,
    "Ġaromatic": 82688,
    "Ġcavern": 76304,
    "_req": 18110,
    "ĠÑĤÐ¾Ð¿": 113981,
    "Ð»Ð¸Ð¶": 124762,
    "ĠOrient": 62574,
    "ØªØŃ": 104525,
    "ĠEins": 61452,
    "@dynamic": 96062,
    "getTime": 26345,
    "ilitating": 76254,
    ",and": 51526,
    "Ġtaxp": 23839,
    "])Ċ": 2608,
    "ĠNicht": 87517,
    "ĠÑĢÑı": 117339,
    "escaping": 43580,
    "Ġconsoles": 51193,
    "_planes": 76440,
    "Ġsuitcase": 88949,
    "uetype": 99440,
    "sterreich": 69498,
    "à¤¾à¤ªà¤ķ": 127162,
    ".getLocation": 52328,
    "ÑĥÐ²Ð°Ð²": 105261,
    ".encrypt": 66426,
    "ë§Ľ": 124986,
    "ĠRespect": 78138,
    ".stdout": 25880,
    "ĠSusan": 31033,
    "Ð´Ð°Ñı": 125717,
    "Ġfs": 8789,
    "ĠÐºÐ°Ð±": 110643,
    "ĠMDB": 87452,
    "ĠhÄ±zlÄ±": 110198,
    "Ġspline": 71186,
    "ĉModel": 60276,
    "-handle": 89507,
    "Ð½Ð¸ÐºÑĸÐ²": 103499,
    "Ġargs": 2897,
    ",ĊĊĊĊ": 31725,
    "persist": 40926,
    "ĠonResponse": 57336,
    "(com": 14426,
    "ĠPOLITICO": 99539,
    "ĠplayerId": 77061,
    "ĠÎ£Ïį": 118591,
    "Ġfights": 28533,
    ".isTrue": 83626,
    "_sex": 83213,
    "ÏĦÎ¹ÎºÎ±": 127301,
    "ĠÑĦÐ¾ÑĢÐ¼Ñĭ": 118794,
    "Ġurlpatterns": 64534,
    "Ġdilemma": 55867,
    "ĠASE": 99967,
    "distinct": 54121,
    "ISTRATION": 61631,
    "ĠpÅĻij": 107815,
    ".pick": 68497,
    ".ut": 63548,
    "_GPIO": 18344,
    "ĠEsther": 84738,
    "ĠRope": 98996,
    "utenberg": 45533,
    "ĠTicket": 29497,
    "Secure": 50913,
    "olving": 20222,
    "Ġmakeshift": 87180,
    "Ġscoring": 20413,
    "_DET": 78207,
    "Ġyáº¿u": 105334,
    "ç¦": 54656,
    "uely": 67510,
    "Mis": 84259,
    "esteem": 64717,
    "ĠSCT": 95385,
    "/www": 27648,
    "ĠResist": 79968,
    "//------------------------------------------------------------------------------Ċ": 46914,
    "ĠBaltimore": 24899,
    "itude": 3993,
    "ĠìĺģíĻĶ": 110243,
    "arsers": 41588,
    "/+": 62751,
    "Ġwarned": 19201,
    "ĠÐ¿Ð¾ÐºÑĢÑĭ": 112067,
    "isky": 71804,
    "ĠTick": 54192,
    "ĠSaul": 68624,
    "Ġnháº±m": 108095,
    "Ġslide": 15332,
    "_serv": 45153,
    "Ġsymmetric": 55443,
    "Ø´Ø§Ø±": 104327,
    "æŁĦ": 120910,
    "Ġol": 8492,
    "aaa": 33746,
    "_REPORT": 41513,
    "Ġíĸīë³µ": 125970,
    "ciÃ³": 88200,
    "ounder": 94006,
    "Ġheater": 43338,
    "Ġacordo": 78026,
    "Ġodpowied": 72086,
    "iren": 47435,
    "Ġmemiliki": 72236,
    "MYSQL": 55163,
    "818": 23141,
    "ÂłS": 109269,
    "_sold": 89293,
    "ĠSind": 97781,
    "_TOUCH": 75388,
    "Norm": 26042,
    "å¢ĥ": 103496,
    "ĠPhilosophy": 46969,
    "Ġdanske": 56853,
    "orns": 44129,
    "ĠIQueryable": 62889,
    "Ġblack": 3776,
    "Ġê²°íĺ¼": 123651,
    "_StaticFields": 38835,
    "ĠCOLLECTION": 95176,
    "ĠWa": 29614,
    "ayscale": 51448,
    "Ġshaped": 27367,
    "ĉgraph": 67716,
    "ĠnÃ¡d": 109821,
    "stands": 97815,
    "dep": 15237,
    "Ġmotor": 9048,
    "Ġsignup": 41148,
    "Ġtandem": 67042,
    "letters": 21731,
    "iropr": 56087,
    "ĠvazgeÃ§": 126163,
    "Cancel": 9453,
    "moves": 67182,
    ".el": 16230,
    "ĠÐ´Ð¾Ð³Ð¾Ð²": 120223,
    "IXEL": 40887,
    "ĠÐ·Ð´Ð¾Ð±": 123164,
    "Ġåĭ": 107964,
    "Ġsubsystem": 53885,
    "ĠêµĲìľ¡": 109194,
    "Ġenfants": 60404,
    ".Visibility": 40918,
    "ronym": 47980,
    "routeParams": 71129,
    "Â½": 27154,
    "state": 2513,
    "Alex": 28487,
    "qu": 447,
    "éĽħ": 72125,
    "Ġmessed": 65302,
    "åĪ¤æĸŃ": 122225,
    "Ġwaktu": 86982,
    "ĠÄĳÃ¢y": 102224,
    "USIC": 47427,
    "66": 2287,
    "Ġriver": 15140,
    "ĠÑĢÑĸÐ·Ð½Ñĸ": 125017,
    "ILog": 66009,
    ".transfer": 50528,
    "atings": 28789,
    "ĉmin": 26388,
    "ctl": 12654,
    "ëĵł": 82776,
    "Ġmotivating": 89689,
    "(\"+": 36073,
    ")}>": 64732,
    "ĠAdidas": 70989,
    ":\"#": 80829,
    "aca": 17544,
    "ÅŁt": 48497,
    "Ïİ": 100352,
    "ĠCrusher": 16598,
    "ĠNr": 70193,
    "ĠÑı": 46410,
    "ilate": 76457,
    "Ġgras": 50087,
    "Britain": 91838,
    "ĠÐ½Ð¾Ð²ÑĭÑħ": 126084,
    "Prom": 36286,
    "/dr": 49154,
    "ĠÎ´Ïį": 110168,
    "ĠMarie": 33116,
    "|$": 81150,
    "creativecommons": 86331,
    "Ġirq": 39369,
    "ĠìŀĪìĹĪëĭ¤": 104816,
    "Ġteeth": 18311,
    "communications": 44410,
    "à¸§à¸ģ": 102417,
    "Ġdownloads": 31572,
    "ä¸Ģçº§": 123547,
    ".subplot": 46767,
    "TC": 7905,
    "ĠXuÃ¢n": 119042,
    "reur": 35340,
    "(Audio": 87214,
    "Ġtedious": 66838,
    "_pb": 32509,
    "ÑİÑīÐµÐ³Ð¾": 113500,
    "Ġtongue": 25466,
    "ØŃØ§Ø¯": 109690,
    "confidence": 83029,
    ":@\"": 5583,
    ".channel": 16592,
    "Ġrebels": 36723,
    "Tick": 23005,
    "ĠAmong": 22395,
    "Ġcave": 26457,
    "áº©n": 102300,
    "ĠLets": 58166,
    "stick": 30133,
    "Ġ(**": 77596,
    "Ġessa": 55729,
    "])ĊĊ": 9801,
    "ĠíĨł": 104689,
    "Ġfest": 19390,
    "ÑģÐºÐ°": 114022,
    "_decor": 71469,
    "Ġcliente": 27727,
    "Ġtrá»¥": 117365,
    "ĠDavis": 17200,
    "ÑĪÐ¸Ð±": 40988,
    "à¤ĩ": 102579,
    "ãİ": 105017,
    "/c": 2971,
    "ĠBuf": 70113,
    "_Description": 80787,
    ".languages": 91078,
    "äºļæ´²": 105479,
    "Ġolma": 121095,
    "CHAN": 85516,
    "Ġabsor": 15938,
    "ĠWikipedia": 27685,
    "Ġthá»": 100382,
    "-depend": 36814,
    "Ġarchive": 18624,
    ")');Ċ": 45026,
    "ãĢİ": 44620,
    "TP": 4334,
    "ĠMidnight": 64680,
    "ĠDouglas": 31164,
    ".Typed": 99252,
    "ziej": 78512,
    "yii": 38264,
    "ĠsÃ¼rdÃ¼r": 111682,
    "à¸Ļà¸²à¸ĩ": 113194,
    "éħįç½®": 86867,
    "ĠKnicks": 62512,
    "gene": 43471,
    "Ġleftover": 65543,
    "Ġshrine": 74648,
    "pers": 32390,
    "Ġslicing": 86015,
    "ĠAnnunci": 64266,
    "Ġrnd": 38293,
    "\"}}Ċ": 96742,
    "ĠInvite": 86023,
    "ĠPut": 10435,
    "ĠHarm": 92071,
    "ĠKiÅŁisel": 125056,
    "_QUAL": 71042,
    "=\"<?": 4347,
    ">Data": 91221,
    "Ġdenomin": 62265,
    "ÂŁ": 111483,
    "usi": 53913,
    "Ġenumerator": 75731,
    "Ġkork": 110693,
    "ĠÐĴÐ¾Ð·": 127047,
    "Ġemerges": 59696,
    ".Layer": 67174,
    "Invariant": 77721,
    "ĉprogress": 90071,
    "ì°®": 125087,
    ".YEAR": 73714,
    "Ġdistinct": 12742,
    "ĠConverted": 94793,
    ".+": 60252,
    "Ġtamanho": 70338,
    "ĠÅŁ": 22841,
    "Ġvalidates": 27353,
    "Ø§ØŃÛĮ": 106878,
    "Ġexquisite": 59708,
    "-w": 2695,
    "=:": 31590,
    "?>/": 98322,
    "FullName": 37317,
    "umped": 61292,
    "Ġdram": 13859,
    "Ġnutritious": 78216,
    "ĠAnal": 20017,
    "ĠÑģÑĤÐ¾Ñı": 109695,
    "gravity": 71891,
    "ĠCru": 14761,
    "ĉmodel": 20307,
    "ä¸»é¢ĺ": 124010,
    "Ø§Ø¨ÙĤÙĩ": 119845,
    "ĠBloss": 89859,
    "ĠVanilla": 66682,
    "ĠÐ²ÑĭÑıÐ²": 123236,
    "ĠØ®Ø¯Ùħ": 105661,
    "ĠØºÛĮØ±": 106392,
    "Ġindispensable": 64284,
    "ymes": 79809,
    "Ġwurde": 27201,
    "ĠÐ¿ÑĢÐ¾ÑģÑĤ": 101672,
    "attend": 57558,
    "ç½Ĺæĸ¯": 127037,
    "ĠTrade": 17657,
    "Ġfabulous": 35631,
    "Ġorigen": 88489,
    "DBC": 46153,
    "Ġusing": 1701,
    "ê¹ĮìļĶ": 117677,
    "Ġkittens": 83190,
    "/Private": 75877,
    "á»¯a": 102596,
    "ĠUploaded": 69304,
    "Ġaph": 89111,
    "ãģ«ãģªãĤĬ": 115717,
    "Ġtimestamp": 11695,
    "Ġspinach": 68798,
    "_KEYS": 52351,
    "ints": 21719,
    "pong": 60202,
    "806": 22397,
    "Ġdistribution": 8141,
    "Ġrates": 7969,
    "Tre": 66875,
    "\\L": 76238,
    "äºĶæľĪ": 122706,
    "ĠÐ²ÑģÑĸ": 104114,
    "ĠÐ´ÐµÐ¹ÑģÑĤÐ²Ð¸ÑĤÐµÐ»ÑĮÐ½Ð¾": 124699,
    "âī¡": 107632,
    ".PREFERRED": 13274,
    "ĠColumns": 54673,
    "_SANITIZE": 77803,
    "ÅĤa": 22250,
    "ĉiNdEx": 96865,
    "ĠFlo": 20151,
    "-month": 23086,
    ".observable": 54823,
    "terrain": 47882,
    "ĠmÃ¡r": 81079,
    "ìŀĦ": 94801,
    "ords": 2311,
    ".layoutControl": 62761,
    "ReceiveProps": 87554,
    "æ¯İ": 121410,
    "ĉinclude": 25728,
    ".onerror": 86039,
    "Ġabound": 87690,
    "Ġbeaucoup": 48488,
    "tools": 16297,
    "ĠSimulator": 53338,
    "Ġsquarely": 95563,
    "ĠÐ¿ÑĢÐ¾Ð³": 106604,
    "ĠInspiration": 79577,
    "_annotations": 79996,
    "Hist": 64157,
    "gs": 5981,
    "Ġmientras": 59694,
    "Ġtua": 64984,
    "ĠØ¬Ø§ÙħØ¹Ø©": 116210,
    "ĠÑģÐ°Ð¼": 97185,
    "Ġgenesis": 60466,
    "-road": 66815,
    "(eventName": 86946,
    "ãĤĴä½ľ": 126694,
    ".googleapis": 20341,
    "Ã¼nst": 60491,
    "Ð½ÐµÑĤ": 108108,
    "Ġcompensation": 20448,
    "_caps": 54055,
    "ĠLJ": 97788,
    "-)": 63096,
    "Ġspent": 7543,
    "ãĥĳ": 80805,
    "Ġà¤ħà¤§": 101801,
    "è¦§": 111182,
    "_LOCK": 28761,
    "Ġpeaceful": 26733,
    "_tracks": 68053,
    "ĠAbbey": 65555,
    "ĠBorderSide": 73501,
    "ĠCSL": 72756,
    "Ð»ÑĥÐ°ÑĤÐ°": 114979,
    "à¸µĊ": 109787,
    "Ġbn": 41697,
    "LinkedList": 35015,
    "Î¯Î¶": 105899,
    "Vo": 28615,
    "ÄįÃ¡st": 109574,
    "Ġcoordination": 38793,
    "//===": 79812,
    "/_": 20205,
    "Î¼Î¹Î¿ÏħÏģÎ³": 118227,
    "_estado": 63164,
    "ĠBMP": 76294,
    "ĠErdogan": 57189,
    "Ġwollen": 58045,
    ".rs": 26721,
    ".setUp": 78800,
    "ĠRepublican": 9540,
    "Regex": 33564,
    "Ġì¢": 66799,
    "ĠØ¨ÛĮ": 102363,
    "ĠTResult": 48040,
    "ĠVisualization": 91860,
    "ĠDEVELO": 71361,
    "ighting": 45850,
    "cj": 80546,
    ".TryParse": 34418,
    "ĠÐ²Ð»Ð°Ñģ": 105619,
    "ÏĮÎ´": 119728,
    "ĠShader": 35888,
    "_GAME": 42008,
    "ÑĢÐ°Ð»ÑĮ": 104687,
    "465": 19988,
    "Ġ\")\"Ċ": 88776,
    "_yaml": 65480,
    ":'',": 97503,
    "ĠONE": 25002,
    "Ġsiguiente": 56001,
    "Ġfocal": 42199,
    "semicolon": 45861,
    "ine": 483,
    "Ġeuros": 33588,
    "_MON": 28164,
    ".pp": 80126,
    "ĠÑģÐµÐ±Ðµ": 104001,
    "emble": 92729,
    "Ġpx": 17585,
    "_counts": 27067,
    "uD": 72972,
    "ĠCure": 70819,
    "Tor": 33450,
    "Ġnude": 20637,
    "ĠLaboratory": 32184,
    "Ġklim": 124532,
    "ĠExtensions": 56895,
    "cy": 11377,
    "ĠOmar": 54658,
    "ĠadÄ±na": 114588,
    "ÏģÎ¯Î¶": 115086,
    "Ġsweaty": 98521,
    "Ġfinden": 36203,
    "ĠEntre": 42759,
    "/console": 97369,
    "ord": 541,
    "-grid": 29183,
    "tol": 21220,
    "Ġuncert": 23953,
    "_filled": 91692,
    "Bre": 51329,
    "Ġextern": 16011,
    "ĠEuropa": 39600,
    "ior": 2521,
    "Ġmanifested": 79754,
    "Ġens": 4675,
    "cÄ±sÄ±": 113712,
    "atsu": 51843,
    "ĠTTC": 88900,
    "ORN": 47052,
    "ÎµÏģÎ¿": 118444,
    "Ġtriggered": 22900,
    "CLE": 30501,
    "Ġçī": 65488,
    "Ġcog": 62666,
    "Ġscenario": 15398,
    ".ResponseWriter": 38608,
    "ĠGNU": 4348,
    "Genre": 38625,
    "(MainActivity": 44571,
    "asin": 51410,
    "stad": 47940,
    "ØªØ¯": 105640,
    "');ĊĊ": 3840,
    "áº»": 101498,
    "ĠSnapchat": 56279,
    "ĠTrotsky": 91993,
    "ĠUIF": 45504,
    "Ġmalzem": 118367,
    "ĠBake": 53174,
    "\"s": 41887,
    "olut": 9218,
    "Ġnomin": 25194,
    "ĠVlad": 30734,
    "')}}\"></": 46911,
    "ĠØ§ÙĩÙĦ": 111637,
    "ë³Ħ": 102517,
    "Ġindicating": 19392,
    "_TI": 57209,
    "ä»": 6271,
    ")čĊčĊ": 7377,
    "ĠDahl": 87967,
    "ĠFecha": 61578,
    "ē": 207,
    "ĉtoken": 45047,
    "(__": 5630,
    "ĉG": 9796,
    ".SK": 92029,
    "ĠÎ¯": 109996,
    "Ġvariance": 33373,
    "Ġbaff": 65516,
    "Ġstu": 55854,
    "Ġ%,": 127036,
    ")ĊĊĊĊĊ": 65066,
    "ĠGuar": 40100,
    "ilmesi": 103279,
    "ĠWasher": 97182,
    "-he": 38435,
    ".setWindowTitle": 99375,
    "ĠSending": 58746,
    "ĠPain": 35567,
    ".assertIn": 54058,
    "ATABASE": 20471,
    "ĠnaÅ¡ich": 123162,
    "ĠHtmlWebpackPlugin": 93515,
    "orias": 68363,
    "à¸µà¸ģ": 102737,
    "Ġlikely": 4461,
    "ĠÎķÎĽ": 120722,
    "ĠÐŁÐ¾ÑģÐ»Ðµ": 110381,
    "ĠÐ¸Ñģ": 103392,
    "SEND": 62774,
    "ĠArbeits": 71265,
    "ĠBulk": 62020,
    "Gold": 26509,
    "Ġcosplay": 89784,
    "Ġinstr": 9680,
    "âĢī": 105584,
    "Ġmarket": 3157,
    "Ġutan": 82864,
    "cbd": 91849,
    "*R": 70766,
    "endance": 30819,
    "yes": 9891,
    "Ġweekends": 38102,
    "ĉreader": 62577,
    ":::::|": 125852,
    "rani": 110056,
    "ÑģÐºÐ¾": 120134,
    "ĠPreston": 63325,
    "_was": 92712,
    "ĠSPEED": 74943,
    "Ġdizzy": 85184,
    "ASS": 5045,
    "Ġplea": 40067,
    "ĉidx": 63177,
    "Ġfundament": 12762,
    "ulpt": 24285,
    "=v": 40354,
    "ÙİØ§ÙĦ": 110177,
    "Ġaren": 7784,
    ".dialog": 25978,
    "èī": 34452,
    "ĠÐ´Ð¾Ð¿": 101809,
    "-function": 34849,
    "-wage": 96976,
    "ÃŃt": 16485,
    "Ð°ÑĤÑĥ": 103457,
    "Separ": 14832,
    "à¸µà¸Ń": 110483,
    "éģł": 110596,
    "ĠRelax": 68685,
    "çĽ¸åħ³": 79656,
    "printed": 53313,
    "atem": 38346,
    "oho": 96386,
    "à¸¹": 42686,
    "Ġsegu": 82402,
    "Tá»«": 125330,
    "ÎµÎ¹ÏĦÎ¿ÏħÏģÎ³": 115872,
    "ĠÐ°Ð²": 68828,
    "Ġuintptr": 39290,
    "-V": 20198,
    "ĠHayward": 93305,
    "ĠShapes": 62631,
    "Ġderin": 115391,
    "ĠÐ²Ð¸Ð³": 120349,
    "ĠÐ¿ÑĸÐ´": 100621,
    "Ġbeaches": 35909,
    "_arg": 6185,
    "_estimator": 93068,
    "ĠDenver": 22898,
    "ĠSpectrum": 52939,
    "Ġhandle": 3790,
    "Mt": 72272,
    "é§ħ": 103449,
    "éĽĳ": 122202,
    "asse": 13559,
    "Ġ'__": 12385,
    "Ġcrowds": 35851,
    "Łģ": 108244,
    "Ġswal": 50454,
    "_FULLSCREEN": 88788,
    "endregion": 7871,
    "ĠSMALL": 50297,
    "xing": 90651,
    "Ġsubjected": 38126,
    "ĠOVER": 36564,
    "ç¼ĸåı·": 73740,
    "Ġìļ¸": 111535,
    "BigInteger": 54319,
    "\">'": 18229,
    "agnar": 81853,
    "CASE": 41471,
    ".Inject": 42146,
    "Ġ&);Ċ": 80494,
    "Ġdecreased": 25983,
    "ĠØ±Ø¨": 118339,
    "ç§ĳåŃ¦": 108396,
    "Je": 30854,
    "ĠÐ·Ð°Ð·Ð½Ð°Ñĩ": 117098,
    "passes": 95423,
    "Ġmidfielder": 45067,
    "ĠdÃ¼zenli": 127357,
    "/Search": 79993,
    "iran": 55790,
    "ĠIndian": 7904,
    "Ġnewspaper": 17222,
    "ĠTf": 92556,
    "Ġsmoothing": 63061,
    "Ġuttered": 90839,
    "ĠTurns": 58334,
    ".Round": 38746,
    "ĠjTable": 93649,
    "Ø°ÙĥØ±": 125177,
    ".DATA": 53828,
    "admins": 75700,
    "Ġferry": 52650,
    "Ġhari": 70796,
    "çĸĨ": 125547,
    "ĉtag": 61539,
    "ĠMant": 52068,
    "ĠÐ½Ð°Ð´Ð¾": 109549,
    "osg": 92512,
    "Ġadmirable": 85684,
    "ÙĥÙĬÙĦ": 125755,
    "ĠINITIAL": 57954,
    "'l": 64966,
    ".scalatest": 73363,
    "(\"\")]Ċ": 46805,
    "ĠShoes": 39729,
    "Ġìķł": 106460,
    "Ð½Ð¸ÑĨÑı": 115074,
    "Validators": 32848,
    "à¥Īà¤¦": 110316,
    "ĠKem": 67066,
    "Ġzorunlu": 126639,
    ":\")Ċ": 35503,
    "UBY": 85370,
    "ĠAnswers": 38343,
    "Ġgoals": 9021,
    "ĠALWAYS": 68514,
    "ĠPornhub": 78007,
    "Ġshell": 12811,
    "à¥įà¤°à¤¹": 108590,
    "ĠÄįlovÄĽ": 116588,
    "Ger": 66497,
    "Ġini": 17225,
    "Ð¾ÑģÐ»Ð°Ð²": 119994,
    "èģĶ": 50182,
    "PropertyName": 32143,
    "ÎºÏĮ": 103596,
    "ellas": 75595,
    "ĠaltÄ±n": 116959,
    "ĠIngredients": 52275,
    "Ġbudou": 104924,
    ".toLocale": 70518,
    "ĠÐ·Ð°ÐºÐ¾Ð½Ð¾Ð´Ð°Ð²ÑģÑĤÐ²Ð°": 127981,
    "(OS": 57141,
    "(Dialog": 43183,
    "Ġrepos": 46874,
    "Ġgarg": 97183,
    "Crystal": 82038,
    "å¥³": 58850,
    "à¸±à¸Ĵà¸Ļ": 105042,
    "VIS": 58427,
    "_<?": 62652,
    "ØªÙĪØ§ÙĨ": 103086,
    "ĠCox": 39760,
    "Ġuna": 5203,
    "906": 22224,
    "Ð¾Ð½Ð¸": 102221,
    "Ġlobby": 19865,
    "\"];": 28633,
    "ovanou": 123257,
    "(poly": 71855,
    "larÄ±na": 102552,
    "rowave": 34803,
    "Ġbred": 55187,
    "Ġruins": 46762,
    "Ġaccelerated": 49858,
    "larÄ±ndaki": 125808,
    "illi": 58268,
    "Ġfried": 41951,
    "):čĊ": 5903,
    "plies": 7350,
    "åıĺå¾Ĺ": 124662,
    "Ġunserer": 45260,
    "ĠÐ´ÐµÐ²": 109392,
    "642": 22266,
    "Ġà¤¬à¤¨": 101403,
    "Ġbiá»ĥn": 107931,
    "Ġæ²": 103879,
    "ĠLines": 39333,
    "ĠëĶĶìŀĲìĿ¸": 126598,
    "Ġlam": 32703,
    "ĠÐ¼ÑĸÐº": 126700,
    "ĠPW": 59393,
    "Ġobr": 39294,
    "Ð¸Ð·Ð½ÐµÑģ": 119179,
    "ĠzejmÃ©na": 111493,
    "ĉUINT": 39808,
    "Ġdesires": 32097,
    "Drivers": 89929,
    "Ġzag": 90119,
    "ĠÄĲiá»ģu": 106104,
    "multiply": 65748,
    ".âĢĻ": 14639,
    "ĠGiven": 16644,
    "Ġfever": 34653,
    "Ġbeans": 27994,
    "ì§ĢëĬĶ": 107054,
    "Ġprejud": 34920,
    "ĠEB": 50242,
    "ĠVir": 9734,
    "ovolta": 93591,
    "ĠManga": 71035,
    "à¸¢à¸§à¸ģ": 110146,
    "iales": 33888,
    ".Ret": 53946,
    "Â¨": 76105,
    "ĠBEL": 69359,
    "ypical": 89215,
    "ãĤıãģļ": 124059,
    "ĠmenÅ¡ÃŃ": 124732,
    ".Broadcast": 85888,
    "<|reserved_special_token_87|>": 128095,
    "Ġclears": 57698,
    "Ġsouthern": 18561,
    "Ġverk": 69436,
    "ĠFÃ¶r": 87567,
    "Ġwarranties": 61913,
    "lÃŃb": 118251,
    "stral": 56070,
    "Ġprev": 8031,
    "Ġinfiltration": 98835,
    "ÐºÐ¾ÑĢÐ¸ÑģÑĤ": 103642,
    "Ġapprent": 46430,
    "Ġ[&](": 62438,
    "Ġappend": 8911,
    "ORIGINAL": 99301,
    "Ġabide": 58299,
    ".rename": 49041,
    "Emily": 85148,
    "estination": 21298,
    "Ġbuy": 3780,
    "Ġcomb": 3698,
    "Ġjunction": 49341,
    "INAL": 30546,
    "Ø§Ø²Ø¯": 127192,
    "Ġsquash": 59576,
    "ihanna": 79457,
    "ä¸Ģä¸ªäºº": 126550,
    "ĠDetails": 12589,
    "templ": 75960,
    ".ColumnStyle": 73408,
    "Win": 17400,
    "_LEFT": 19550,
    "_var": 4715,
    "ÑīÐ¸Ð¹": 113921,
    "à¸£à¸Ńà¸ļ": 117113,
    "Ġoperation": 5784,
    "Ġpredominantly": 47904,
    "inis": 85703,
    "pleted": 11274,
    "Ġdecides": 28727,
    "ĠÐ»Ð¸ÑĨ": 107729,
    "Ġlashes": 87711,
    "Ġlov": 98892,
    "CHIP": 89688,
    "Gu": 17198,
    "DEPEND": 96778,
    "Marketing": 68662,
    "(coll": 86729,
    "Arch": 19249,
    "findById": 95109,
    "Ġambitious": 32855,
    "_hover": 54545,
    "à¤ķà¤°": 101185,
    "Chef": 95003,
    "-names": 90144,
    "Ġmmap": 71966,
    ")(__": 75799,
    "Ġfuller": 88018,
    "airro": 38758,
    "Operators": 78860,
    "><?": 7660,
    "ĠMund": 67661,
    "ĠAnalysis": 18825,
    "uib": 80723,
    "ĠColleges": 79219,
    "ĉwant": 51880,
    "Ġ%.": 19032,
    "Ġrenowned": 37048,
    "_hook": 33105,
    ":$": 22444,
    "Ġespos": 71327,
    "ĠReduce": 53253,
    "ĠMasks": 62232,
    "æľĿ": 103293,
    "é¼ĵ": 117681,
    "ĠÃ´ng": 102665,
    "ĠEdward": 22653,
    "iÅŁi": 114999,
    "ĉselect": 39110,
    "Ġpore": 97551,
    "ÑĩÐ½Ð¸Ð¹": 118032,
    "/workspace": 94481,
    "ĠBernard": 35352,
    "ÑĨÐ¸": 15458,
    ".assertEqual": 8033,
    "ROTO": 77615,
    "anel": 2444,
    "æĿ¥ãģŁ": 124284,
    "Ġfert": 21900,
    "|,Ċ": 51288,
    ".faces": 42300,
    "ëŁ´": 121408,
    "ĉuse": 42919,
    "Ġbdsm": 42797,
    "URE": 4622,
    "ordial": 93773,
    "ĉdefer": 17292,
    "Ġnv": 32540,
    "ĠonStart": 58213,
    "ardash": 56788,
    "Ġune": 6316,
    "669": 25289,
    "Ġiron": 11245,
    "ĠÙ¾Ø±Ø¯": 107236,
    "Ġbao": 103253,
    "Ġqr": 50390,
    "ä¸ĩåħĥ": 92555,
    "Imagine": 52157,
    "unte": 11066,
    "Ġattractive": 19411,
    "ĠØ¢Ùħ": 101308,
    "Ġyarar": 109987,
    "ĠÙģØ¹": 127770,
    "Sorting": 72781,
    "Ð·Ñĭ": 106748,
    "Ġtrapped": 31691,
    "Ġchatte": 54951,
    "Ġé«": 103148,
    "åħī": 101426,
    "İĺìĿ´ì§Ģ": 80527,
    "Ġbenchmark": 29531,
    "ĠVerify": 26504,
    "Â»,": 61312,
    "AM": 1428,
    "ĉex": 8285,
    "ĠUltr": 67957,
    "ĠTYPO": 78374,
    ".bat": 82506,
    "Ð¸ÑĤÐµÐ»ÑĮÐ½ÑĭÐ¹": 118050,
    "ĠHat": 22050,
    "PN": 18378,
    "ĠBarney": 94529,
    "Union": 33758,
    "Pts": 91249,
    "Ġ/*!<": 30471,
    "Ġcamino": 84544,
    "Ġnaked": 19557,
    "qualification": 73009,
    "Compatibility": 86980,
    "Ġroadway": 82211,
    "ĠØ§Ø¨": 101558,
    "City": 13020,
    "éķ·": 101544,
    "ĠAires": 65717,
    "Ġinnov": 9721,
    "ĠHosting": 69523,
    ":::/": 122885,
    "(objects": 74799,
    "PlainOldData": 50174,
    "dle": 91485,
    "è¿Ļä¸Ģ": 113418,
    "ĠJoey": 55835,
    ".interpolate": 82753,
    "Ġemit": 17105,
    ".sendFile": 72953,
    "Crop": 63246,
    "ĠÏĢÎµÏģÎ¹ÏĥÏĥÏĮÏĦÎµ": 117291,
    "ĠÑĥÑĩÐµÐ±": 127092,
    "ĠØ¹ÙĨØ¯": 106167,
    "Ġì½Ķë¡ľëĤĺ": 124141,
    "Ġíİ": 102266,
    "/pi": 63328,
    ".mContext": 98913,
    "assets": 5271,
    "ĠCathedral": 57829,
    "Ġwyn": 62034,
    "Ã¢m": 87828,
    "ĠÐ¸ÑģÐ¿": 53687,
    "/TR": 53427,
    "ĠÐļÐ¾Ð»Ð¸": 117920,
    "ĠØ®ÙĪ": 107076,
    "ĠId": 5336,
    "Ġsteril": 66740,
    "=x": 26459,
    "Ġä¸»": 91082,
    "#=": 57043,
    ".acquire": 70727,
    "timing": 90860,
    "å¯¾": 103359,
    "Ġfizik": 119114,
    "fits": 30322,
    "ĠÐ´ÐµÑĢÐ¶": 111361,
    "#line": 18967,
    "live": 25859,
    "ÃŃn": 25196,
    "ĠÃľNÄ°": 121961,
    "ĠLoans": 48615,
    "ê²©": 102079,
    "ordin": 6114,
    "ÑİÑĩÐ¸ÑģÑĮ": 115216,
    "_todo": 88786,
    "XÃ£": 80909,
    "Ġbildir": 109557,
    "Ġimpover": 77742,
    ".mongo": 89584,
    "ĠpÅĻÃŃstup": 111852,
    "Ġrequested": 11472,
    "_destroy": 18557,
    "ĠDominic": 68134,
    "ĠMais": 34447,
    "Ġannoy": 38292,
    "Ġland": 4363,
    "ĠEy": 44511,
    "Badge": 57154,
    "ĠstringByAppending": 60361,
    "Ġmáº½": 122376,
    "_entropy": 51474,
    "_FOR": 14856,
    "impse": 40527,
    "*>&": 63376,
    "Like": 13246,
    "ĠRise": 43777,
    "sons": 38448,
    "-graph": 74116,
    "ĠChlor": 92479,
    "$user": 25403,
    "ApiController": 69717,
    "$app": 49778,
    "å¯¿": 117539,
    "ĠShadow": 25284,
    "Ġä¸Ĭ": 65218,
    "ĠVin": 21016,
    "needs": 56345,
    "tical": 35758,
    "ĠClin": 18905,
    "ĠØµÙĨØ¹Øª": 117349,
    "ĠQUERY": 68235,
    "hesive": 41918,
    "ĠlÃłm": 100724,
    "ÏİÎ½Î±": 124839,
    "Jess": 61763,
    "%d": 15185,
    "ensagem": 68959,
    "ĠAdvis": 24874,
    "ĠNietzsche": 94206,
    "Ġslump": 86828,
    "æº«": 117986,
    "Ġrefactor": 93395,
    "Ġ?\",": 43413,
    "Ð¸ÑģÑĮ": 126659,
    "Ø§ØªÙĩ": 122736,
    "RFC": 65471,
    "uploaded": 57983,
    "à¸Ńà¸ļ": 101183,
    "Ġreliability": 31638,
    "627": 23103,
    "ì°¬": 112003,
    "Ġbak": 37303,
    "ĠInfragistics": 56002,
    "ueba": 43512,
    "ĠCodec": 68177,
    "(choices": 92383,
    ".collectionView": 66808,
    "ĠLogan": 44146,
    "ĠéĴ": 122076,
    ".onload": 36973,
    "Ġbelg": 108340,
    "ÑĩÐ½Ñĸ": 113710,
    "ÙĪÙħØªØ±": 107916,
    "Ġmeticulous": 96278,
    "hou": 18664,
    "ĠjmÃ©": 111095,
    ".Symbol": 67095,
    "//}ĊĊ": 56442,
    "ĠíıŃ": 115062,
    "ĠEylÃ¼l": 110810,
    "ĠWC": 37746,
    "Ġjed": 18806,
    "Site": 18060,
    "âĶĤ": 73987,
    "ĠØªÛĮ": 116386,
    "ĉglfw": 86609,
    "JsonValue": 94512,
    "ÐµÐ»Ð¸Ñĩ": 110141,
    "Ġä¸ĭ": 40195,
    "|l": 127277,
    "ĠÐ½ÐµÐ·": 104871,
    "ouz": 109475,
    "ĠMassive": 82564,
    "ĠEduc": 10355,
    "ĠKou": 76965,
    "_roles": 44161,
    "fel": 59367,
    "]'Ċ": 68414,
    "(ac": 49496,
    "(BuildContext": 21614,
    "ĠAgr": 72808,
    "Ġlandscapes": 55890,
    "Ġprioritize": 63652,
    "ÑģÐ¾ÑĤ": 119427,
    "Ġsaya": 55037,
    "å·¥ä½ľ": 102301,
    "Ġ'');": 92615,
    "Ġhue": 40140,
    "istung": 84314,
    "neapolis": 39576,
    "_quality": 56174,
    "à¸¹à¹Ī": 101324,
    "_HELPER": 86431,
    "Ġfora": 86084,
    "Ġmetabolism": 39097,
    "ëĵ±": 102278,
    "Ġçĭ": 112362,
    "=z": 83670,
    "Ġattack": 3440,
    "ĠfontStyle": 89337,
    "Ã§i": 104549,
    "Ġmanip": 14951,
    "Ġmasc": 44036,
    "Ġrecom": 38301,
    "Tomorrow": 91273,
    "ĪæĿĥ": 83042,
    "_func": 9791,
    "empre": 37939,
    "False": 4139,
    "Owner": 14120,
    "baby": 79064,
    "Ġpad": 11262,
    "(Channel": 69520,
    "Unauthorized": 52281,
    "Endpoint": 28480,
    "Ġcalcul": 5935,
    "Ġincluded": 5343,
    "à¥įà¤¨": 101495,
    "Ġdiz": 43386,
    "ĠLoves": 85123,
    "Ġss": 11107,
    "Ġtruncate": 57872,
    "ĠÐĽÑİ": 108144,
    "005": 8504,
    "Ġellipse": 58497,
    "Ġê²½ì°°": 127972,
    "Ġswallowing": 91747,
    "ĠimageUrl": 40749,
    "Ġolun": 117456,
    "Ġgroup": 1912,
    "vik": 44181,
    "Ġrestroom": 89909,
    "(EVENT": 73558,
    "ĉelif": 23560,
    "ĠAndres": 96446,
    "ridden": 43285,
    "Ġinnings": 36100,
    "ÄŁinde": 107172,
    "ÐķÐ¢": 127295,
    "ĠÐ¿Ð»": 101013,
    "<|end_of_text|>": 128001,
    "ĠMemphis": 43162,
    "Ġ[âĢ¦]...Ċ": 124585,
    "Ġtill": 12222,
    "_logits": 60655,
    "ĠTrudeau": 44809,
    "erspective": 86191,
    "Ġåħī": 116996,
    "Brian": 51188,
    "Ġkeeps": 13912,
    "Ð²Ð¾Ðº": 123448,
    "kills": 62025,
    "Ġ().": 34811,
    "ĠHel": 16183,
    "ĠÐºÐ°ÑĢ": 102899,
    "æŁ¥çľĭ": 109579,
    "Ġ<<=": 52278,
    "ãģĤãģ®": 118116,
    "Ġparanoid": 69763,
    "Ø±Ø§ÙĨÙĩ": 125039,
    "Hour": 31354,
    "='<": 36795,
    "âĺ´": 67580,
    "FN": 42704,
    "à¸ļà¸Ħ": 115203,
    "???ĊĊ": 95621,
    "Ġperspectives": 39555,
    "Ġwaar": 38395,
    "Ġbueno": 93641,
    "evaluation": 75114,
    "Ġartery": 65415,
    "<|reserved_special_token_9|>": 128017,
    "wa": 10196,
    "ãĤĪãģ³": 119517,
    "ĠMapping": 39546,
    "Ġnieu": 54901,
    ".shuffle": 46148,
    "Ġëĵľë¦½ëĭĪëĭ¤": 122421,
    "ĠTon": 31816,
    "Ġprogen": 84360,
    "ĠpÅĻÃŃjem": 117632,
    "ĠfÃ©": 58482,
    "neighbors": 80588,
    ".SM": 78368,
    "ĠÐ²Ð¸Ñģ": 104279,
    "(bind": 72644,
    ".css": 4425,
    "Ġcontingency": 83549,
    "PCR": 74256,
    "ude": 799,
    "ĠØ³Ø§Ø¹Øª": 108121,
    "Ġifs": 85173,
    "Ġstroll": 69983,
    ".drawRect": 86959,
    "ÎķÎĻ": 107437,
    "(APP": 79437,
    "ĠXCTAssert": 20887,
    "Ġplacements": 89493,
    "Ġinstantiated": 55686,
    "super": 9712,
    "fail": 18910,
    "/sc": 34574,
    "Ġnon": 2536,
    "Communic": 82023,
    "(\"***": 81406,
    "SEC": 26629,
    "station": 20762,
    "Ġ})čĊ": 26906,
    "(click": 44417,
    "inside": 42450,
    "ĠKremlin": 51424,
    "ìłĳ": 107519,
    "ĠScarlett": 96572,
    "ì¶Ķ": 103948,
    "Ġíĺĳ": 114080,
    "-grand": 72102,
    "ĠBlock": 8527,
    "Ġelectr": 43906,
    "Ġrou": 29465,
    "Ġchase": 33586,
    "parcel": 97020,
    "ĠHaupt": 91031,
    "ĉcontroller": 62715,
    "Ġëĵ¯": 112285,
    "ĉtarget": 29961,
    "(long": 12916,
    "ĠVII": 46069,
    "(\"\"),": 87176,
    "ĠcompareTo": 80398,
    "ACION": 46144,
    "Ġdr": 1377,
    "_SS": 58307,
    "åŃ¸éĻ¢": 126537,
    "ĠUC": 31613,
    "ital": 2223,
    "Printer": 46760,
    ".portal": 35863,
    "Being": 34242,
    "Ġcihaz": 114782,
    "-striped": 33875,
    "pag": 18926,
    "-tool": 41324,
    "JNIEnv": 89214,
    "Employ": 37132,
    "ĠMercedes": 34328,
    "Produces": 50212,
    "Ġoriginally": 13517,
    "Ġwaits": 48036,
    "_states": 23830,
    "ĠĠĠĠĠĠĊĠĠĠĠĠĠĊ": 94104,
    "(æľ¨": 112309,
    "TargetException": 73252,
    "ãģĳãģ©": 107493,
    "Ã³j": 62424,
    "ĠLe": 2009,
    "Ġ)Ċ": 1763,
    "assador": 25512,
    "uce": 10743,
    "æļ®": 127331,
    "ĠFinger": 63961,
    "Ġlecturer": 72235,
    "ãĥŃãĥ¼": 117243,
    "Ġgradu": 28032,
    "ĠDom": 21414,
    "VF": 50163,
    "ÑĩÐ½Ð¸Ñħ": 110091,
    "ĠELECT": 73577,
    "ĠTorrent": 64886,
    "ĠStard": 98928,
    "ĠchÆ°a": 104403,
    "ĠMei": 92033,
    "ĠçĪ": 110233,
    "@login": 41746,
    "å¸Ń": 105350,
    "ĠCarlo": 58870,
    "ĉĠĠĠĠĠ": 9281,
    "adratic": 89778,
    "Ġ){": 41123,
    "ãģ¾ãģĽ": 105823,
    "]')Ċ": 59510,
    ".runner": 42328,
    "exas": 7619,
    ".UltraWin": 96913,
    "Ġíį¼": 117887,
    "ilarity": 49325,
    "Ġconverting": 34537,
    "Ġnaval": 46398,
    "Ġbuttons": 12706,
    "uitive": 35251,
    "Ġappro": 3057,
    "Ġà¤¸à¤¤": 109943,
    "Ġuzun": 105039,
    "OrDefault": 14522,
    ".Domain": 21074,
    "Drive": 33557,
    "Ġshield": 20858,
    "Ġ[][]": 54031,
    "Ġvertex": 12202,
    "ĠNB": 36079,
    "Ġsolvent": 69996,
    "áº¡n": 50986,
    "Ġì§": 49011,
    ".DataGridViewTriState": 96037,
    "æľ¬å½ĵ": 117475,
    "Ġgui": 19783,
    "_exc": 46747,
    "ĠÑĢÐµÑĩ": 106919,
    "VIRTUAL": 95383,
    "lesen": 57127,
    "ĠÙĨØ§Ø¯ÙĬ": 123573,
    "(mesh": 47441,
    "Ġî¡": 122252,
    "à¸ªà¸§": 106123,
    "vell": 73312,
    "ĠAmelia": 91979,
    "705": 21469,
    "asyarakat": 92380,
    "invert": 84829,
    "ĠShake": 73423,
    "-Line": 92636,
    "ë": 167,
    "_pdu": 96349,
    "ĠÃ¶zg": 112072,
    "(rate": 77823,
    "Ġtight": 10508,
    ".Bitmap": 37281,
    "Capability": 64846,
    "Ġprocedural": 62781,
    "Ġcitizen": 22618,
    "Coding": 78613,
    "ÐµÑĢ": 7753,
    "Ġwaving": 64211,
    "ĠÄįervna": 117219,
    "ettings": 82283,
    "unsigned": 3710,
    "Ġê´Ģë¦¬": 104019,
    "ĠRVA": 45696,
    "DEBUG": 5261,
    "ayaran": 74002,
    "(setting": 76740,
    ".match": 11319,
    "Classic": 64431,
    "ĠUganda": 58149,
    "Ġdefy": 90672,
    "Ġdocumento": 54526,
    "Ġinfring": 45119,
    "ìĭ¸": 122487,
    "_ARB": 54500,
    "race": 42283,
    "à¸²à¸¨": 103053,
    "çĽ¸åĲĮ": 123025,
    "(heap": 74124,
    "Ġturquoise": 97047,
    "ĠVLC": 94605,
    "Ø±": 11318,
    "ê¼": 115175,
    "âĶģâĶ": 119848,
    "-alone": 74249,
    "orris": 98416,
    "ĠMg": 73693,
    "OrCreate": 58211,
    "rossover": 38272,
    "Ġà¸ªà¸³à¸Ļ": 127562,
    "ĠÎ¼Î¬": 117233,
    "VP": 13683,
    "ĠÐ¼ÑĸÑģÑĤÐ°": 113432,
    "ĠSOUND": 85373,
    "ĠdataArray": 84812,
    "ĠJPanel": 28828,
    "à¤Ĥà¤¤": 101162,
    "Ġeducated": 33142,
    "Ġëª¨ëĳĲ": 109580,
    "miÅŁtir": 104994,
    "ĠDirections": 54586,
    "Ġgenau": 69976,
    "ĠØ²Ø¯": 125159,
    "ĠNeeded": 57661,
    "Markup": 54188,
    ".MAIN": 99659,
    "/thread": 73244,
    "ĠTransformers": 81632,
    ",*": 29107,
    "Ġsculpture": 51067,
    "Arm": 34013,
    "ĺ": 246,
    "ĠLic": 33675,
    "Ġparticipated": 31408,
    "ĠHand": 8704,
    "ĠRebecca": 45557,
    "Ġì§Īë¬¸": 109760,
    "ĠINF": 36072,
    "ĠIList": 29814,
    "Ġtapping": 53728,
    "mpjes": 75654,
    "roomId": 87494,
    "æĪ»": 114941,
    "ĠØ¯Ø§Ø®ÙĦ": 110515,
    "ĠØ£ÙĥØªÙĪØ¨Ø±": 118365,
    "ICY": 39364,
    "Children": 11800,
    "(The": 83696,
    "){}Ċ": 57173,
    "Ġdistressed": 71490,
    "ĉast": 89936,
    "ĠBuck": 27156,
    "Ġchocol": 72476,
    "äºķ": 103932,
    "å½¢å¼ı": 115707,
    "ĠSuccess": 13346,
    "åĵģ": 25446,
    "SETTING": 49474,
    "(j": 3406,
    "åįģåĽĽ": 122976,
    "Ð´Ð½": 109936,
    "PILE": 59558,
    "Ġturned": 6656,
    "ĠIconData": 66564,
    "ĠfontWithName": 98218,
    "ĠlineNumber": 60041,
    "ĠRae": 90599,
    "ĠÆ°u": 107823,
    "ĠGovern": 8114,
    "Ġnhu": 105920,
    "ĠâĶĥ": 121037,
    "togroup": 83961,
    "ak": 587,
    "_Cancel": 98585,
    "ĠPour": 27058,
    "ifestyles": 73625,
    "ĠBOX": 53783,
    "Ġassures": 94087,
    ",void": 99995,
    "knife": 43820,
    "å¤Ł": 108677,
    "phia": 18120,
    "ĠContacts": 47139,
    "Ġwallet": 15435,
    "assuming": 66463,
    "ĠØ§ÙĦØªØ¯": 120304,
    "nerg": 39624,
    "ĠProvince": 38894,
    "ĠĠĠĠĠĠĠĠĠĠĠĠĠĠĠĠĠĠĠĠĠĠĠĠĠĠĠĠĠĠĠĠĠĠĠĠĠĠĠĠĠĠĠĠĠĠĠĠĠĠĠĠĠĠĠĠĠĠĠĠ": 39584,
    "reat": 1244,
    "factory": 22348,
    "Ġà¤ħà¤ĸ": 126710,
    "çĨŁ": 109809,
    "à¸µ,": 127636,
    "ĠElementType": 81626,
    "Ġcanvas": 10247,
    "Unlike": 44179,
    "Ġpredicate": 25269,
    "åĿĤ": 115641,
    "ufs": 88183,
    "Ġwaved": 65682,
    "ĠStress": 51568,
    "ĠTArray": 96373,
    "_debug": 15810,
    "ĠìłĦìĹĲ": 121588,
    "ĠTradable": 23940,
    "Ġairs": 79991,
    "such": 21470,
    "_sessions": 72485,
    "ĠST": 4015,
    "pytest": 27819,
    ".Auto": 6613,
    "imit": 2408,
    "å¹ħ": 111044,
    "Regardless": 63717,
    "è½¬": 47770,
    "ĠNeon": 78064,
    "Ġnot": 539,
    "ĠHeller": 93893,
    "xmax": 95132,
    "Ġrecursion": 51362,
    "åĲįåŃĹ": 119395,
    "ÑĪÐ¾Ð²": 106052,
    "âĢĻdaki": 119497,
    "ĠWhisper": 98074,
    ")animated": 51858,
    "Ġviolin": 63137,
    "ĠÑģÑĤÐµÐ½": 107981,
    "ĠBris": 44831,
    "ĠVL": 61322,
    "ĠÚ©Ø§ÙħÙ¾ÛĮ": 126834,
    "FIG": 6507,
    "-from": 39151,
    ".Roles": 90869,
    "registro": 56446,
    "_OPERATION": 45785,
    "Ġvivastreet": 65892,
    "bic": 94598,
    "ĠrowCount": 66245,
    "à¤Ķ": 122390,
    "Ġuse": 1005,
    "ĠĠĠĠĠĠĠĠĠĠ": 1881,
    "dynamic": 22269,
    "è§Ĥ": 103276,
    "ĉicon": 46184,
    "ĠPurch": 53792,
    "609": 21138,
    "ĠXperia": 86989,
    "Ġeks": 90762,
    "Ġfabrics": 53054,
    "ĠÑĨ": 39233,
    "Ġframework": 12914,
    "(cos": 89930,
    "Ġhefty": 65242,
    "vertiser": 85915,
    "à¸ģà¸²à¸£à¸Ĺ": 115832,
    "Ġmutlak": 117414,
    "plr": 95945,
    "Ġescre": 98045,
    "TabIndex": 99709,
    "contenido": 77368,
    "_Abstract": 75472,
    "ĠHollande": 94431,
    "Ġaccomp": 58433,
    ".quality": 93869,
    "013": 16368,
    "129": 9748,
    "Failed": 9595,
    ".world": 23731,
    "cdot": 51953,
    "uite": 9486,
    "å¤Ħ": 45390,
    "Ġà¹Ģà¸Ķ": 105401,
    "/Framework": 81609,
    "ANDOM": 37515,
    "$json": 64413,
    "[color": 85211,
    "nÃŃch": 100867,
    "Ġvfs": 94041,
    "ĠBrent": 47431,
    "ĠPhilly": 66254,
    "_so": 40933,
    "Ohio": 66217,
    "ÙĨØ¯ÙĤ": 124871,
    "ĠdefaultManager": 100020,
    "ĠÙħ": 24252,
    "KV": 83807,
    "urtle": 22492,
    "ĠTud": 91251,
    "ĠÐ¿ÑĢÐ¾ÑĪ": 112050,
    ".quantity": 35392,
    "buffer": 7726,
    "ç¨®": 104091,
    ".unsplash": 87662,
    "Ġbenz": 72046,
    "_TOOLTIP": 78952,
    "Ġcest": 103915,
    "Ġdeploying": 61417,
    "Ġãģĭ": 119653,
    "_vector": 12526,
    "ĠPlayboy": 91079,
    "<form": 11869,
    "âĢĶall": 87247,
    "à¹Ĥà¸Ķà¸¢": 103010,
    "ĠUIImageView": 30068,
    "012": 11531,
    ".plan": 46942,
    "ĠIndepend": 17565,
    "ĠVan": 13000,
    "ĠØ¹Ø¨Ø¯": 103486,
    "stringstream": 29903,
    "à¹Ģà¸ł": 105998,
    "çİ°åľº": 121683,
    "[text": 68910,
    "(Me": 14615,
    "<|reserved_special_token_135|>": 128143,
    "Ð°Ð½ÑĸÐ·": 117530,
    "caption": 24232,
    "agement": 3531,
    "nbsp": 5792,
    "Ġé¦¬": 122498,
    "ĠÐ¿ÑĤÐ¸": 123276,
    "ĠRoyal": 16591,
    "Ġachievable": 89253,
    "Ġthrust": 30985,
    "\\S": 30842,
    "ĠSidebar": 39800,
    "-budget": 95852,
    "urnal": 63550,
    "å¤į": 59464,
    "oro": 18812,
    "ĉLOG": 26590,
    "Ġesl": 98946,
    "asters": 14533,
    "$info": 73012,
    "ython": 27993,
    "itchen": 7606,
    "Ġsurfaces": 27529,
    "Ġua": 46659,
    "ĠRome": 22463,
    "Ġcust": 16973,
    "é¦": 46065,
    "orer": 15171,
    "ĠLeaves": 78614,
    "ĠPoss": 42145,
    "Ġloyal": 29947,
    "agna": 56057,
    "/extensions": 73582,
    "ĉoutput": 21858,
    "ĠÑģÐ²Ð¾Ð¸": 112398,
    "father": 23881,
    "gin": 8326,
    "ĠTestData": 94300,
    "ĠUIS": 29897,
    "Ð´ÐµÐ¹ÑģÑĤÐ²": 113008,
    "MUX": 79361,
    "Ġsopr": 80229,
    "Ð¸ÑģÑĤÑĢÐ°": 126208,
    "Ġrecognizable": 66352,
    "proper": 81768,
    "-opacity": 69159,
    "Un": 1844,
    "ĠsÃ¡m": 112472,
    "ancer": 11967,
    "Ġswath": 93512,
    "ĠAverage": 24478,
    "acellular": 65441,
    "fillable": 42486,
    "ĠSolutions": 23508,
    "structors": 92466,
    "Ġaccus": 26589,
    "-----------ĊĊ": 55310,
    "actors": 21846,
    "Ġfputs": 78136,
    "Ġalle": 12584,
    "Ġnumar": 121130,
    "ĠPROC": 25362,
    "<TextView": 91202,
    "ĠnewItem": 49088,
    "20": 508,
    "Ġcosine": 76359,
    "ĠGitHub": 33195,
    ".hasOwnProperty": 25965,
    ".fre": 86653,
    "oltip": 13684,
    "Ġprofiler": 88597,
    "ĠdifÃŃc": 79965,
    "Ġhoodie": 97401,
    "/*------------------------------------------------": 74162,
    "Ġust": 88689,
    "ĠElastic": 53010,
    "ĠPur": 14874,
    "(labels": 38015,
    "NonNull": 17256,
    "fcc": 74075,
    "(\"[%": 58352,
    "Ġflick": 29447,
    "ä¸įçŁ¥éģĵ": 115711,
    "Ġaffordability": 79010,
    "ìĦłê±°": 127471,
    "Ġarchives": 39104,
    "ĠLU": 76050,
    "ĠÐ´ÑĥÑħÐ¾Ð²": 112078,
    "iface": 53774,
    "Authorities": 60489,
    "CTYPE": 15365,
    "Ġitalic": 61863,
    "Ġgdy": 77034,
    "ÛĮÙĨ": 83355,
    "<data": 84831,
    "Resolver": 18689,
    "iname": 80956,
    "Americans": 92786,
    "ulumi": 66582,
    "Ġpnl": 73793,
    "SingleNode": 73452,
    "ĠsetVisible": 84352,
    "ABL": 95035,
    "ĠActiv": 15050,
    "INavigation": 45211,
    "ä»£": 31640,
    "Ġurlencode": 59791,
    "Ġfals": 33032,
    "_exchange": 60312,
    "ĠØ§ÙĦØ£Ø¯": 121212,
    "_backward": 71577,
    "Ġlaw": 2383,
    "ĠìŀĪëıĦë¡Ŀ": 123644,
    "Ip": 24267,
    "ãĥ«ãĥī": 123186,
    ",options": 89832,
    "zenÃŃ": 102230,
    ".body": 5189,
    "CONN": 74667,
    "ĠMeghan": 80134,
    "ĠCrossAxisAlignment": 44389,
    "_news": 33585,
    "åģ¥åº·": 113614,
    "?'ĊĊ": 87314,
    "ÙĥØªÙĪØ±": 120759,
    "æŃ¡": 125741,
    "Ġminimalist": 72770,
    "Ġticking": 83437,
    "ĠOsc": 56736,
    "ĠGeorg": 13629,
    "ĠØ¸Ø±Ùģ": 116466,
    "Ġthoáº£i": 125555,
    "ektor": 119267,
    "ĠWEB": 45056,
    "'": 6,
    "lyph": 9717,
    "tip": 13446,
    "itive": 3486,
    "'image": 78337,
    "VIDEO": 51695,
    "ĉspin": 45675,
    "Ġheating": 24494,
    "XXXX": 24769,
    "Ġconten": 55111,
    "Ġcrisis": 11501,
    "Ġgreetings": 95185,
    "à¥įà¤¯à¤µà¤¸": 111754,
    "Ä±nda": 39797,
    "694": 25392,
    "ĠTaipei": 97445,
    "ressed": 14715,
    "âĢ¯": 113012,
    "hq": 82999,
    "Ġì¢Į": 122691,
    "Ġsadly": 44145,
    "ĠØµØ±Ùģ": 117961,
    "toInt": 32060,
    "Ġfacebook": 23795,
    "Ġfield": 2115,
    "Van": 46324,
    "_ylabel": 49289,
    "Ø¸": 93481,
    "(main": 27664,
    "(create": 33702,
    "libc": 56676,
    "iger": 7420,
    "ÙĬØ§": 101160,
    "ĠÑģÐ²ÐµÐ¶": 119589,
    "ĠPageInfo": 97393,
    "ENDING": 31979,
    "Ġbrag": 57794,
    "(n": 1471,
    "osit": 35154,
    "Ġdisadv": 30947,
    "Texture": 8959,
    "(\",\");Ċ": 47749,
    "ĠÑģÐµÐ½ÑĤÑıÐ±ÑĢÑı": 119388,
    "ĠDude": 86309,
    "Ġsafeg": 38386,
    ":length": 30396,
    "Ġshooting": 10658,
    "localObject": 54307,
    "Argb": 20007,
    "ãģĹãģ¾": 103801,
    "åĦĢ": 118273,
    "ĠAma": 105664,
    "Ġterrorism": 24020,
    "ĠØ§Ø®ØªÛĮØ§Ø±": 127168,
    "ĠpropTypes": 56616,
    ".Size": 2524,
    ".';Ċ": 26637,
    "Ġmilfs": 93074,
    "QString": 23157,
    "Assembler": 78958,
    "ĉto": 32809,
    ".ctrl": 58178,
    "strukce": 122314,
    "PubMed": 58238,
    "Ġsummoned": 52810,
    "ĠCheer": 93731,
    "firebase": 30410,
    "ETIME": 45718,
    "ĠÙĤØ¯Ø±": 106896,
    "Sh": 2059,
    "Trong": 108178,
    "Ġschema": 11036,
    "-content": 6951,
    "ĠÑĤÐ¾Ð¼": 103217,
    "Ġjih": 126556,
    "(player": 11875,
    "MetaData": 38407,
    "à¸±à¸ĩà¸ģ": 106127,
    "atern": 13680,
    "Ġinvo": 51744,
    "=\".$": 27429,
    "_lane": 61402,
    "_nested": 67379,
    "ĉdiff": 81664,
    "Ġirresponsible": 71379,
    "ĠÏİÏģÎ±": 124223,
    "Ġà¤¬à¤²": 108261,
    "Ãĭ": 116314,
    "FILES": 20821,
    "_condition": 28756,
    "_GE": 60133,
    "gaben": 84643,
    "Ġshards": 75210,
    "ĠÐ·Ð°ÑģÑĤÑĥÐ¿": 127488,
    "Ġracial": 19739,
    "ListItemIcon": 96347,
    "Ġcoloc": 59840,
    "=obj": 78346,
    "Ġpedigree": 94054,
    "ĠpremiÃ¨re": 55133,
    "_pct": 72612,
    "Ġfantasies": 60277,
    "(forms": 58349,
    "Really": 49885,
    "-ce": 54312,
    "Flex": 32771,
    "},'": 77142,
    "Ġglacier": 94867,
    "Ġwinding": 54826,
    "_backup": 45810,
    "$template": 69709,
    "(pi": 52364,
    "Ġvisceral": 89116,
    "hp": 21888,
    "ĠKl": 29041,
    "Concrete": 84694,
    "_LIGHT": 36714,
    "Ġstoria": 99989,
    "ĠChamp": 56690,
    "ÐºÐ¾": 48199,
    ">>Ċ": 40171,
    "Tp": 63341,
    "Ġdemolition": 61698,
    "arov": 95018,
    "ĠìĺģêµŃ": 121883,
    "\\.": 19362,
    ".IsNullOr": 13029,
    "IRQ": 62415,
    "reflect": 36013,
    "edelta": 47954,
    "/Foundation": 35025,
    "ĠKafka": 58125,
    "Ex": 849,
    "ĠSpeaking": 45072,
    "ç¼": 25906,
    "_ALIAS": 62708,
    ".libs": 78759,
    "ĠStella": 75698,
    "Ġincentive": 36210,
    "ĠÐ¿ÑĢÐ¾Ð·": 120113,
    "Ġskeleton": 30535,
    ".SqlClient": 42798,
    "Advertis": 12123,
    ".gameObject": 18263,
    "Ġ'*',": 81274,
    "acific": 41583,
    "Ġmanually": 20684,
    "¶ļ": 90183,
    "Ġalmond": 63168,
    "ĠParameters": 13831,
    "ĠWanna": 96808,
    "**": 334,
    "being": 35214,
    ")})": 99429,
    "ĉarea": 96168,
    "Chinese": 46023,
    "áº¥p": 100807,
    ",,,,": 27856,
    "iated": 10234,
    "urtles": 52214,
    "Ġcontexts": 38697,
    "Â´:": 126838,
    "Ġtwe": 14887,
    "DefaultCloseOperation": 56482,
    "tÃ¼": 103144,
    "Ġrecurs": 25755,
    "Ġyoungsters": 61095,
    "ĠAtlanta": 20005,
    "Ã©rience": 65679,
    "Îĸ": 110156,
    "ussions": 39833,
    "Ġsinks": 58052,
    "ĠLikes": 52014,
    "`)Ċ": 25158,
    "Render": 6893,
    "ĠpageNumber": 61241,
    "ĠÐ¼Ð¾Ð¶ÐµÑĤ": 68088,
    "Ġmá»ĳi": 115390,
    "ĠFinal": 13321,
    "ĠÙĤØ¯Ø±Øª": 113193,
    "olkata": 63792,
    "OLUME": 43894,
    "ĠYale": 44552,
    "Ġfooth": 79463,
    "Ġtrout": 80827,
    "Ġshoots": 44727,
    "Ġå®ŀ": 93393,
    "Ġisolate": 43223,
    "Ġmolecule": 43030,
    "--------------------------------------------------------------------------Ċ": 26972,
    "Ġsustainable": 22556,
    ".to": 2446,
    "(custom": 62401,
    "Ġistih": 122912,
    "_issue": 54440,
    "ĠEDM": 99117,
    "Ġcustom": 2587,
    "ä»¥åīį": 117382,
    "ĠjednÃ¡": 121796,
    "Ġlatitude": 21518,
    "ĠÐ¾ÑĪÐ¸Ð±": 89763,
    "Capabilities": 56415,
    "Ġstatue": 35372,
    "\\\">Ċ": 35921,
    "ortho": 91924,
    "ãĢįçļĦ": 127479,
    "Ġtrag": 72702,
    "Ġìŀ": 16633,
    "ĠDPI": 98125,
    "Ġallowing": 10923,
    "PRS": 91206,
    "Ð½Ð°ÑĢÑĥÐ¶": 113018,
    "Assign": 30033,
    "ativo": 29350,
    "ÐºÑĢÐ°ÑĹÐ½": 103523,
    "ĠBALL": 84948,
    ".depend": 60334,
    "Caller": 59835,
    "duplicate": 64926,
    "ĠComparison": 43551,
    "ĠHardy": 58374,
    "otor": 10088,
    "Ø«Ø§ÙĦ": 124701,
    "Ġproti": 105040,
    "Ġaggression": 40307,
    "ĠÐ¾ÑĨÑĸ": 112375,
    "ĠÑĥÑĩÑĢÐµÐ¶Ð´": 121873,
    "ĠÙĪÙģÙĬ": 113269,
    "_nome": 77244,
    "ë²ł": 105010,
    "Ġcommas": 77702,
    "aro": 17606,
    "Ġonline": 2930,
    "ãģ¾ãģŁãģ¯": 125845,
    "Ġ=~": 21132,
    "_testing": 72062,
    "ener": 804,
    "ĠØ£ØŃÙħØ¯": 115044,
    "Ġclimates": 92399,
    "Ġfint": 85385,
    "ĠHick": 79028,
    "Ġripped": 44092,
    "alte": 93420,
    "amel": 36662,
    "Ġkli": 108106,
    "Ġdocumentary": 25999,
    "ĠPhÃº": 116377,
    "Ġlog": 1515,
    "ĠSCSI": 82726,
    "Ġdept": 45693,
    "cape": 5443,
    ")ĊĊ": 696,
    "Ġnudity": 92472,
    "Ġprix": 38847,
    "Ġunintended": 73443,
    "ĠOPS": 83955,
    "ĠØªÙħØ§Ùħ": 106682,
    ">ĊĊ": 1363,
    "ished": 3384,
    "ë°ĺ": 101738,
    "Ġpci": 46571,
    "ĠÐ¼Ð°ÑİÑĤÑĮ": 109679,
    "Ġèµ": 103423,
    "ektÃ¶r": 105589,
    ",))Ċ": 54378,
    "íĺ¼": 108970,
    "module": 4450,
    "append": 5200,
    "Ġfeel": 2733,
    "ĠÎ´Î¹Î±": 102226,
    "ĠÑĩÐ¸Ñģ": 41176,
    "ĠØ§ÙĦÙħØ®Øª": 126401,
    "ĠCONFIG": 13504,
    "sandbox": 77856,
    "å¤ªéĥİ": 117739,
    "asket": 9746,
    "ĠÐ¡ÐµÐ¼": 119813,
    ">\\": 8616,
    "ĠãĥĨ": 113545,
    "Ġzjist": 115770,
    "âĪı": 123880,
    "æª¢": 121623,
    "Ġfilter": 4141,
    "ç¯": 83898,
    "åıĳçĶŁ": 110105,
    "Ny": 99192,
    "ĠPoor": 45773,
    "ĠÐ¿ÑĢÐ¾ÑĦÐ¸Ð»Ð°ÐºÑĤÐ¸": 127024,
    "Ġego": 37374,
    "Ð¼ÑĸÐ½": 103928,
    "\\xff": 88077,
    "Ä±n": 16507,
    "Ġbark": 54842,
    "Ġresulting": 13239,
    "Ġsaison": 80091,
    "Intel": 50199,
    "Ġ'/')": 65533,
    "Ġarguments": 6105,
    "ãģıãĤĮ": 120700,
    "ĠØ³ÛĮØ¯": 116125,
    "à¤Ĥà¤ªà¤°": 118950,
    "redients": 10593,
    "Ġquá»¹": 122039,
    "`čĊ": 76779,
    "Ġbulundu": 123416,
    "ĠPune": 76338,
    "ÙħÛĮÙĦ": 119687,
    "curring": 46839,
    "ĠInputStream": 25899,
    "ĠÎļÎ±Ïģ": 122806,
    "emergency": 99908,
    "Ġessay": 9071,
    "ĠJog": 87507,
    "Chan": 47119,
    "uvw": 62910,
    "[to": 67399,
    "install": 12527,
    "²": 110,
    "ĠæĬĢ": 122928,
    "ä½İ": 103167,
    "Ã¡hl": 115099,
    ".strategy": 75637,
    "Ġtrek": 45688,
    "plusplus": 25432,
    "sure": 19643,
    "ĠìĹĨìĸ´": 126781,
    "(\"/{": 66971,
    "Ð±ÐµÑĢ": 111996,
    "ÐµÐ¼Ð¾Ð½": 106577,
    ">A": 24362,
    "_Ċ": 13220,
    "Ġwidget": 9264,
    "ĠÎ¹": 102703,
    "ĠÐ¿Ð¾Ð²ÐµÐ´": 114356,
    "Ġrifle": 29232,
    "Focus": 14139,
    "Think": 39787,
    "owych": 47011,
    "IPLE": 53919,
    "Ġcomme": 22299,
    "ĠÐ½ÐµÐ¼": 102461,
    "ekkÃ¼r": 116780,
    "vergence": 81848,
    "ĠPearson": 59642,
    "ĠÑģÐµÐ±": 102117,
    "roj": 102763,
    "ĠÐ¸Ð³ÑĢÐ°": 117630,
    "_fecha": 73617,
    "marked": 47462,
    ".FIELD": 63280,
    "ĠDuration": 21722,
    "Pat": 28205,
    "ĠuserService": 31762,
    "Enviar": 86881,
    ":**": 68063,
    "Discount": 40981,
    "ĉpc": 83113,
    "Ġnhá»±a": 119278,
    "_OPENGL": 92453,
    "Ġìŀ¡": 107144,
    "ussia": 29578,
    "ÑĦÐ¸ÑĨÐ¸": 107490,
    "SMTP": 59298,
    "Ġcoli": 74110,
    "Ġtha": 49588,
    "Ð¾Ð»ÑĮÐºÑĥ": 111245,
    "Ġmyster": 24212,
    "icted": 13060,
    "ĠShared": 17423,
    "Kir": 99022,
    "Ġgodt": 81323,
    "-browser": 32655,
    "Ġspy": 21930,
    "ipsis": 48502,
    "OB": 21257,
    "ĠMÃ¼ÅŁ": 120263,
    "Ġnx": 25508,
    "å¾Ĵ": 107263,
    "ktop": 8787,
    "ĠOpenGL": 37803,
    "Expect": 17995,
    "ĠAutomotive": 55518,
    "Ð¾ÑĢ": 9239,
    "ĠĠĠĠĠĠĠĠĊĠĠĠĠĠĠĠĠĊ": 17311,
    "Ġmagg": 88999,
    "CORE": 60047,
    "ĠCoordinator": 43424,
    "Ġdecreases": 43154,
    "Ġautogenerated": 82933,
    "Ġmourn": 60234,
    "OAuth": 58950,
    "Ð»Ð°ÑĤÐ¸": 116885,
    "Ø§Ø¯Ø©": 103411,
    "alyzed": 68942,
    "Ġswearing": 91781,
    "/kernel": 59443,
    "ä½³": 107129,
    "çĿĢ": 100815,
    "Ġmip": 73851,
    "poÅĪ": 119451,
    "Ġkat": 45356,
    "_book": 27519,
    ".Migrations": 37570,
    "à¹Ģà¸łà¸Ĺ": 113038,
    "ãĢĤï¼Ī": 59459,
    "ĠChunk": 46613,
    "serde": 48124,
    "model": 2590,
    "Ġarr": 2961,
    "Ġerhalten": 59084,
    "unu": 63353,
    "Ġblindness": 85515,
    "istrat": 122682,
    "-spacing": 53473,
    "ĠInsurance": 22413,
    "Ġspinning": 38960,
    "SITE": 62206,
    "ugin": 3715,
    "(ib": 94846,
    "Ġ});ĊĊĊ": 28411,
    "getc": 72403,
    "-DD": 41275,
    "Gas": 59828,
    "Ġrider": 38226,
    "ĠAlto": 54370,
    "_species": 75230,
    "ï¼ģ": 6447,
    "theid": 69455,
    "Ġadmins": 58195,
    "ĠØ¯Ø±ÛĮØ§ÙģØª": 109536,
    "ĠÑģÐµÑĢÐµÐ´": 104101,
    "Ġgord": 94913,
    "Ĺ": 245,
    "åľĴ": 104674,
    "_ic": 33847,
    "ĠShoppingCart": 92007,
    "Ġbinary": 8026,
    "(seed": 45263,
    "Ġà¤¨à¤¯": 116977,
    ".DataGridViewAutoSize": 94394,
    "ĠÐ±ÑĭÑĤÑĮ": 62731,
    "ibu": 58082,
    "']Ċ": 4532,
    "ĠPr": 2394,
    "ĠVerde": 73948,
    "åĩºãģĻ": 121406,
    "Ġpe": 1069,
    "ĠHá»įc": 121010,
    "ĠTamb": 59226,
    "ĠBull": 22353,
    "Ġconcatenate": 78884,
    ".keyword": 75011,
    "ĠVAT": 48692,
    "Ġcrippling": 97106,
    "ONGLONG": 99596,
    ".select": 9911,
    "/demo": 56260,
    "Ġ/*----------------------------------------------------------------": 68649,
    "','#": 63275,
    "Ġdoes": 1587,
    "/qt": 91076,
    "ĠBankasÄ±": 127703,
    "ispers": 69935,
    "ä¼ĺç§Ģ": 126047,
    "Ġdesignated": 24073,
    "_lim": 59291,
    "Ġflotation": 68297,
    "Tcp": 78636,
    "ĠINTERVAL": 92243,
    "('/')": 48829,
    "automation": 68180,
    "Ø¹ÙĦØ§Ùħ": 121963,
    "å¼º": 103229,
    "ĠalÄ±n": 103056,
    "Ġcon": 390,
    "Ġæ¸": 98359,
    "crets": 53810,
    "ĠClassName": 99557,
    "gener": 7642,
    "Ġtrip": 8577,
    "Ġvolver": 87462,
    "æķ¢": 116773,
    "ĠBillboard": 67293,
    "ĠÐ¾ÑĢÐ³Ð°Ð½Ð¸": 102884,
    "Ġ'@/": 31210,
    "Ãł": 6496,
    "Ġdebit": 46453,
    "wid": 44715,
    "Massage": 88155,
    "Ġnáº±m": 110166,
    "Ġseksi": 62882,
    "_runner": 55928,
    ".debian": 83215,
    "ekyll": 97909,
    "inae": 125887,
    "nestjs": 45687,
    "ãĤ³": 47260,
    "icaÃ§Ã£o": 97292,
    "ekten": 106918,
    "Ġmayo": 74431,
    "ĉas": 61551,
    "Ġplanting": 48114,
    "Ġvalves": 64100,
    "ĠØ¯ÙĩØ¯": 108400,
    "WND": 50395,
    "_An": 33799,
    "graph": 4539,
    "hee": 50153,
    "ĠKaf": 127914,
    "ĠÐ·Ð½Ð°ÑĤÑĮ": 121195,
    "ĉexcept": 35699,
    "ĠÐ¿Ð¾ÑĩÑĤÐ¸": 113898,
    "_ship": 32142,
    "Ġì§ĢëıĦ": 126237,
    "ÐºÐ¾ÑģÑĤÑĸ": 116784,
    "<&": 53344,
    "ĠMaharashtra": 68519,
    "è¿Ķ": 104196,
    ".\",": 10684,
    "nage": 68155,
    "ĠSeam": 79066,
    "whatever": 69386,
    "ENTE": 94877,
    "opt": 2985,
    "75": 2075,
    "~~": 5940,
    "Ġkomunik": 117058,
    "á»±a": 103416,
    "Ġbranch": 9046,
    "ĠtimeStamp": 65376,
    "777": 15831,
    "addField": 52955,
    "Ġmalformed": 80350,
    "Ġnavigation": 10873,
    "Ġuniquely": 42329,
    "namese": 44519,
    ".addColumn": 77831,
    "Ġquyá»ģn": 102655,
    "uling": 12549,
    "833": 22904,
    "Ġ\"\\\">": 84313,
    "Ġunderestimated": 87136,
    "Ġemoc": 86007,
    "ĠUnfortunately": 19173,
    "Ġverbose": 14008,
    "Ġspoilers": 66427,
    "ÏĥÎ¿Ïħ": 125907,
    "ä½¿çĶ¨": 38129,
    "Polit": 97447,
    "ĠWah": 70690,
    "Ġsprite": 17488,
    "Ġ\\\"": 7393,
    "ï¼Įä¸¦": 113415,
    "Ġcrossings": 87199,
    "ĠèĩªåĬ¨çĶŁæĪĲ": 98128,
    "Represent": 66843,
    "_counter": 16107,
    "ptest": 71434,
    "_TRA": 40196,
    "ĠBitcoins": 82925,
    "Ġviewpoints": 90909,
    "ĠÎ±Î»Î»Î¬": 108433,
    ".change": 22187,
    ".getTitle": 47248,
    "ĠÙĨÙĪÙģ": 118232,
    "Ġcomed": 63113,
    "Ġdeceive": 93928,
    "-cert": 62134,
    "ĠKop": 59109,
    "Ġtuning": 42438,
    "Ġsuper": 2307,
    "Ġsectarian": 79880,
    ".her": 44872,
    "ox": 5241,
    "jÃŃcÃŃch": 120959,
    ")];ĊĊ": 74763,
    "ĠÐ±Ð»Ð°Ð³Ð¾Ð´": 115272,
    "Ġjasmine": 66909,
    "Ġspeculated": 74877,
    "ĠProgressDialog": 62931,
    "-west": 38702,
    "uko": 72158,
    "Ġcohorts": 90388,
    "Ġmanufacturers": 17032,
    "(proxy": 66887,
    "esh": 4385,
    "\\Configuration": 84123,
    "Ġmogelijk": 75511,
    "kup": 102891,
    "_disk": 42787,
    "scanf": 27493,
    "Ġtháº³ng": 116765,
    "ĠClare": 62140,
    ".Date": 8686,
    "à¤¾à¥¤Ċ": 105023,
    ".Execute": 14147,
    "ĠComfort": 44842,
    "æ±½è½¦": 110585,
    "Ġden": 3453,
    "_OPTION": 20564,
    "yh": 74901,
    "ĠBindingFlags": 59778,
    "rikes": 68731,
    "Ð±Ð¾Ð²": 112209,
    "à¥Īà¤¸": 101671,
    "Ġexcel": 25555,
    "Ġjung": 70010,
    "_flash": 31325,
    "Ġfila": 49869,
    "èĭ±èªŀ": 114654,
    "Ġeagle": 60989,
    "Ġìłķë§Ĳ": 116334,
    "=cut": 49815,
    "ĠStyles": 38470,
    "Ġstage": 6566,
    "ĠĠĠĠĠĠĠĠĠĠĠčĊ": 65883,
    ".rooms": 84139,
    "ĠÐļÑĢÐ°ÑĹÐ½Ð°": 119911,
    "Balancer": 94925,
    "_TEAM": 72298,
    "ĉcpu": 81435,
    "Ġlistings": 26544,
    "ĠØ§ÙĤØªØµØ§Ø¯": 116702,
    "Ġinterpretation": 23692,
    "Ġprosperous": 71407,
    "ĠæĻ®éĢļ": 125447,
    "plementary": 67082,
    "Ġhoc": 67490,
    "Ġê°Ħ": 105131,
    "isEmpty": 19509,
    "filesize": 92478,
    "ê°Ŀ": 108583,
    "ãĤĪãģĨãģ«": 104466,
    "ĉcc": 64617,
    ".ManyToManyField": 79643,
    "_navigation": 59151,
    "_booking": 66265,
    "ÙĦØ©": 101428,
    "?\",": 32111,
    "æīĢæľī": 56438,
    "Contacts": 37884,
    "ĠBeacon": 59720,
    "Ġ)\"": 91898,
    "ĠKrist": 27973,
    "andan": 83908,
    "Spider": 74008,
    "$(": 8693,
    "ĠØ§Ø¶": 109073,
    "-stack": 57190,
    "355": 17306,
    "Ä±lÄ±ÄŁÄ±yla": 125103,
    "each": 9739,
    "Records": 26962,
    "à¥Ĥà¤ľ": 107440,
    "wat": 59147,
    "<Key": 43103,
    "Ã¤ft": 57639,
    "_MALLOC": 87853,
    "=-=-=-=-=-=-=-=-": 96623,
    "_Template": 59017,
    "æ£ĭ": 113257,
    "ŃĲï¸ı": 121390,
    "<|reserved_special_token_63|>": 128071,
    "(al": 18109,
    "ĠNay": 99173,
    "Ġinterp": 48371,
    "Î¾Î¹": 116075,
    "Initialize": 10130,
    "ĠmM": 84317,
    "posta": 39631,
    "ĠSoil": 76619,
    "amphetamine": 85890,
    "/input": 41090,
    "/q": 34994,
    "elan": 77200,
    "(open": 32081,
    "/account": 49020,
    "Ġshrimp": 56626,
    ".setLocation": 58867,
    "_fil": 79300,
    "ĠÑĨÐµÑĢÐºÐ²Ð¸": 125031,
    ",column": 52269,
    "_ALL": 16668,
    "_TERM": 76320,
    "ĠÐ²ÑĸÑĢ": 115604,
    "assert": 2256,
    "ĠØ±Ø¦": 112420,
    "UTTON": 15125,
    "ĠÐ·Ð¾Ð»Ð¾ÑĤ": 119282,
    "ï¼Įå®ĥ": 115973,
    "Ġalt": 4902,
    "ĠjMenuItem": 88268,
    "Ġswept": 41323,
    "_load": 12693,
    "ĠÐ·Ð°ÑĤ": 102994,
    "_floor": 61144,
    ".MaxLength": 71192,
    "à¸¸à¸ķà¸ªà¸²à¸«": 120812,
    "Ġcourts": 19359,
    "ĠChamber": 32479,
    "Ġvoltage": 22465,
    "-aos": 65944,
    "Â¾": 68496,
    "ĠÐ±Ð¸Ð·Ð½ÐµÑģ": 121770,
    "ĠUnicode": 36997,
    "Ġignor": 26427,
    "qr": 23866,
    "((_": 70322,
    "_pkt": 43151,
    "_SR": 49263,
    "ĠOilers": 90327,
    "////////////////": 2012,
    "agal": 69212,
    ".managed": 100152,
    "Need": 24581,
    "icos": 17038,
    "ĠÎŁÎº": 124894,
    "Ġìī¬": 126010,
    "lÄ±nda": 110713,
    "Ġsay": 2019,
    "Ġaccreditation": 84484,
    "UPDATED": 70842,
    "Inactive": 73314,
    "ĠsetError": 53315,
    "vl": 14878,
    "abort": 47799,
    "pped": 7069,
    "_ELEMENT": 28255,
    "Ġactive": 4642,
    "ãĤĵãģ§ãģĻ": 116233,
    "Ġinitials": 79537,
    "ĠDart": 49197,
    "(Tree": 81281,
    "ammer": 67699,
    "inson": 29973,
    "ĠConstit": 76704,
    ".trip": 94876,
    "Ġcavalry": 79657,
    ".SerializedName": 77191,
    "ibr": 10892,
    "Ġpolov": 115095,
    "ĠÐ½Ð°Ð¹Ð±ÑĸÐ»ÑĮÑĪ": 121979,
    "Ã¢ce": 66096,
    "à¸¢à¸Ńà¸Ķ": 113933,
    "ĠÃľber": 50471,
    "Ġà¤ľà¤¨": 103669,
    "_marker": 27363,
    "ĠØ³Ø§ÙĦ": 101163,
    "_fac": 42689,
    "ĠpH": 37143,
    "ĠCougar": 90857,
    "Ġfik": 110637,
    "Ġwhichever": 54784,
    "Subscriber": 41336,
    "Ġë©": 49208,
    "ĠØ§ÙĦÙħØ¯ÙĬÙĨØ©": 121936,
    "à¯ģ": 84298,
    "unque": 37627,
    "ecided": 79741,
    "à¸ĺ": 100623,
    "åķĬ": 102856,
    "Ġdisrupt": 24927,
    ".Trans": 12078,
    ".STRING": 32319,
    "contains": 13676,
    "ium": 2411,
    "mixed": 57785,
    "Ġtraged": 28375,
    "ĠÏĢÏģÎ¿ÏĬ": 123142,
    "Ġcommence": 56445,
    "getImage": 64408,
    "Ġolig": 55984,
    "isible": 23936,
    "ĠOwens": 64457,
    "106": 7461,
    "}`)Ċ": 28184,
    "Ġì§Ģ": 67890,
    "ĠCelebrity": 65438,
    "udeau": 41596,
    "íĺĳ": 109567,
    "ĠQatar": 43018,
    "ĠolduÄŁu": 102128,
    "jan": 23685,
    "_gas": 83216,
    "ĠProfes": 127262,
    "ĠSai": 71841,
    "CEE": 43677,
    "Ġsendo": 62446,
    "Parsing": 69939,
    "Ġsouls": 35826,
    "ÏĥÎ·": 100569,
    ":&": 36318,
    "(Html": 95720,
    "ĠØ§ÙĬ": 101870,
    "_ioctl": 60783,
    "Ġamore": 72375,
    ".object": 6163,
    ".Of": 96202,
    "Students": 32052,
    "_ComCallableWrapper": 90050,
    "_pow": 57283,
    "_whitespace": 87275,
    "Ã¡y": 106184,
    "ĠFIELD": 41378,
    "ĠSingular": 96030,
    "Oil": 78009,
    "_workspace": 76660,
    "áº¡o": 89416,
    "Ġreversed": 28537,
    "Ġtez": 125359,
    ".getM": 67478,
    "Sweden": 97971,
    "Ġverifier": 89837,
    "ĠBuyer": 62178,
    "Ùį": 104330,
    "Ġ(:": 30354,
    "ĠStObject": 30539,
    "ë¦¬ìĹĲ": 111833,
    "Ġcoh": 71185,
    "ĠdÃ¥": 75445,
    "Any": 8780,
    "æ¯Ķè¾ĥ": 113511,
    "Ġimperfect": 69063,
    ".Man": 31002,
    "åħ±åĲĮ": 119046,
    "Ġag": 945,
    "sahuje": 124393,
    "\")){Ċ": 22623,
    "frontend": 29281,
    "ãĤ´": 103621,
    "ĠIconButton": 46686,
    "ĠÐĿÐ¸Ðº": 111035,
    "ĠìłĦìļ©": 107470,
    "inka": 75222,
    "ÑĢÐ°Ñħ": 101944,
    "'>": 6404,
    "EXP": 33437,
    "character": 19740,
    "rica": 62796,
    "_SL": 26704,
    "Ġadidas": 76290,
    "ĠâĢ¦.": 66621,
    ".writ": 79273,
    "(Collider": 51903,
    ".Table": 18758,
    "Coupon": 89152,
    "typeof": 10433,
    "Ġtoi": 76420,
    ".cloud": 17365,
    "ĠSeite": 48504,
    ".AdapterView": 71559,
    "(ball": 80419,
    "(fout": 96854,
    "Ð¸Ð½Ñĥ": 101693,
    "ĠÐ»Ð¸Ð¿Ð½Ñı": 120015,
    "à¤¾à¤ªà¤¨": 113131,
    "straight": 89292,
    "ĠuÅ¾ÃŃ": 115363,
    "_face": 32085,
    "IMPLEMENT": 70405,
    "ä¹Ĥ": 115302,
    "icient": 5499,
    "ĠÐ¼Ð°Ð¼": 114256,
    "Ø±Ùĥ": 118474,
    "rnd": 65969,
    "ĠMostly": 64285,
    "ĠHazel": 76479,
    "web": 2984,
    ".ImageLayout": 67223,
    "--------------------": 98804,
    "Holy": 72291,
    "Ans": 70699,
    "-ves": 93909,
    "åĩº": 20834,
    "ĠDEA": 76010,
    "ĠÐ¼ÐµÐ¶Ð´ÑĥÐ½Ð°ÑĢÐ¾Ð´": 125999,
    "ĠTrio": 86095,
    "_os": 30487,
    "ĠPhp": 32234,
    "Ġmuss": 36241,
    "ĠUIManager": 93865,
    "_Variable": 85032,
    "Ġinsure": 70632,
    "Ġpolo": 78885,
    "ORG": 46027,
    "ÙĨÛĮ": 101346,
    "ĠShi": 41804,
    "_capture": 56248,
    "Ġzipcode": 81449,
    "nicas": 74446,
    "Ġê±¸": 105701,
    ".lr": 64449,
    "ĠDevin": 81092,
    "Ġìķ¨": 127743,
    "Ç": 131,
    "bourg": 68645,
    "ĉĉĉĉĉĉĉĠ": 41204,
    "Ġgemacht": 70976,
    "ĠmaxValue": 53272,
    "(be": 67706,
    "Ġsword": 20827,
    "Ġraid": 25834,
    "masÄ±na": 105878,
    "natural": 53980,
    ".jsx": 42040,
    "ĠÙ¾ÛĮØ´": 102389,
    "HttpContext": 90711,
    "Ġç¿": 123768,
    "hei": 61952,
    "Ġcastle": 33684,
    "(Text": 35182,
    "ĠJOIN": 13369,
    "Dead": 29420,
    "-days": 96314,
    "Ñį": 68506,
    "Ġincluding": 2737,
    ".onChange": 42085,
    "Dash": 43363,
    "RF": 18077,
    "Å¡i": 105112,
    "Ġcrap": 36650,
    "Ġmá»¥c": 104495,
    "Ġrecognizes": 45799,
    "ĉft": 19473,
    "Ġordered": 11713,
    "ĠActivityCompat": 93544,
    ".Appearance": 28215,
    "ReadWrite": 59710,
    "ĠGE": 30957,
    "Ġabsorbed": 42101,
    "Ġregulating": 58499,
    "ë¹Į": 116964,
    "ĠNgá»įc": 122194,
    "@nate": 109841,
    "@\",": 18891,
    "_posts": 20835,
    "ä¸įä¼ļ": 107774,
    "èĸ©": 122731,
    "_seqs": 94361,
    "à¸¢à¸²à¸§": 118357,
    "Ġmanufacture": 30847,
    "ì»¤": 106153,
    "passport": 43769,
    "/dat": 38666,
    "æ²»çĸĹ": 125240,
    "ĠGermans": 42037,
    "').Ċ": 42229,
    "697": 25388,
    "/Form": 73920,
    "-An": 59016,
    "Ø§ÙģØ¸": 105726,
    "-bodied": 97397,
    "Ġtrying": 4560,
    "ĠfranÃ§ais": 55467,
    "Studio": 32477,
    "ĠĠĠĠĠĠĠĠĠĠĠĠĠĠĠĠĠĠĠĠĠĠĠ": 667,
    "ĠÄĳÆ°á»£c": 64578,
    "Bern": 61026,
    "ĠHay": 18276,
    "ĠÙģÙĨÛĮ": 124987,
    "Ġnoreferrer": 72704,
    "ames": 986,
    "åĥį": 122502,
    "Ġdisposit": 58551,
    "Ġmalaria": 69263,
    "ĠCompensation": 70396,
    "Ġrandint": 54282,
    "_arrow": 47666,
    "Automation": 99956,
    "Callbacks": 45561,
    "ĠÐ³ÑĢÑĥÐ¿": 116234,
    ".Dom": 82772,
    "apore": 18132,
    ".Cmd": 65612,
    "Ġevitar": 71908,
    "Ġlivro": 82523,
    "Ã¤che": 95750,
    "loaded": 15961,
    "æľĢè¿ĳ": 118899,
    "ĠhÃ¼c": 117644,
    "Ġstairs": 32249,
    "_LOG": 8585,
    "Ġsá»ĳng": 103978,
    "ĠSNP": 60418,
    "ĠØ¢Ø²": 108421,
    "Ġì²ĺë¦¬": 82158,
    "anded": 6601,
    "ITIONAL": 89038,
    "Ġyelled": 56177,
    "lauf": 98861,
    "ĉmethod": 43357,
    "ĠAxel": 87779,
    "Ġcensorship": 52988,
    "Ġká»³": 103475,
    "`)": 33981,
    "ĠConsoleColor": 59934,
    "Ġqui": 7930,
    "Ġ^=": 32702,
    "Ġpockets": 30278,
    "Ġhockey": 28051,
    "Ġrandomly": 27716,
    "Ġredeem": 49878,
    "ĠÏĥÎºÎ¿": 124985,
    "Ġëĸ": 105136,
    "Ġstudied": 20041,
    "Ġdistingu": 19512,
    "Football": 87423,
    "_TRUNC": 95742,
    "erved": 2841,
    "elter": 18354,
    "Ġassms": 42171,
    "fÃ¼": 31266,
    "Ġ'\"'": 53190,
    "ĠCarousel": 67302,
    "Ġnicknamed": 90234,
    "ĠGem": 32245,
    "ĠHind": 20412,
    "Ġchuck": 43560,
    "âĦ": 15284,
    "Food": 27844,
    "ĠARG": 33846,
    "Ġich": 10864,
    "ĠEight": 36944,
    "Netflix": 81566,
    "ĠnewSize": 81943,
    "ĠTER": 49948,
    "Ġ$ĊĊ": 85600,
    ".poster": 98194,
    "Ð¾ÑĢÑĸ": 119013,
    "ĠLCS": 84968,
    "ĠFah": 74607,
    "ĠÄĳÃ£": 80226,
    "Ø¸ÙħØ©": 124358,
    "RecognitionException": 93572,
    "_STRING": 12563,
    "ĠØ¹Ø§Ùħ": 102793,
    "+-+-+-+-+-+-+-+-": 73813,
    "DIST": 80540,
    "GRES": 92991,
    "ĠCustomize": 47434,
    "Receive": 15084,
    "ausible": 43736,
    "Ġcz": 18472,
    "Ġserene": 95863,
    "Ġvolume": 8286,
    "choice": 12008,
    "Ġsparkle": 96170,
    "Ġleads": 11767,
    "shift": 13724,
    "ĠobjectMapper": 85012,
    "OR": 878,
    "Ġusur": 96188,
    "æ®ĭ": 108618,
    "ĠÑģÐ»ÑĥÑĩÐ°": 102418,
    "ÏĩÎµ": 101967,
    "lÃ¡n": 103715,
    "ĠOVERRIDE": 88401,
    "_ITEM": 16866,
    "deniz": 124821,
    "qtt": 33367,
    "Center": 9577,
    "Î¬ÏĤ": 112580,
    "ÂĦ": 120285,
    "ĠJewish": 13653,
    "ÑĢÐ°Ð²": 28086,
    "Ġl": 326,
    "Ġescri": 66871,
    "Ġtiáº¿t": 103839,
    "paragraph": 28827,
    "Ġmortgage": 21515,
    "-terrorism": 95996,
    "ĠÄĳá»ķi": 102951,
    "ĉUP": 55970,
    "ì°": 89641,
    "ĠManip": 62011,
    "lop": 23085,
    "ĠChill": 87589,
    "Ġbeyond": 7953,
    "NotNull": 11250,
    "Ġchallenge": 8815,
    "ĠtÄ±k": 111960,
    "Ġoverse": 20270,
    "Ġvisibility": 24035,
    ">Loading": 98560,
    "ìĭľìĹĲ": 118472,
    "ĠForgotten": 95547,
    "ĠOnce": 9843,
    "Ġfunctor": 75812,
    "ĠPais": 82887,
    "META": 80986,
    "ì°¨": 101532,
    "ĠKeyError": 39194,
    "ĠÎĳÎĵ": 121001,
    "ĠkromÄĽ": 124163,
    "Name": 678,
    ".art": 47986,
    "åıªè¦ģ": 120475,
    "README": 55775,
    "Ġthere": 1070,
    "ĠÎľÎ±": 106197,
    ".Space": 65091,
    ":CGPoint": 90469,
    "Ġtoes": 45713,
    "à¥Ģ,": 102067,
    "_without": 41004,
    "ĠæĹ¥æľ¬": 105180,
    "ĠSWAT": 98154,
    "Ġcpt": 95567,
    "CppGeneric": 54278,
    "Ġgenellikle": 115697,
    "Ġhá»ıi": 107193,
    "Ġsp": 993,
    "_le": 12013,
    "ERVER": 8583,
    "-human": 70095,
    "ĠtÃ©lÃ©": 43116,
    "ìĤ¬ê°Ģ": 114333,
    "_CBC": 91864,
    ".assertEquals": 15087,
    "Ġfuzz": 77242,
    "Ġclues": 43775,
    "nocenÃŃ": 115025,
    "ĠSidd": 85813,
    "ĠZeit": 29931,
    "rieving": 68804,
    "Ġfallen": 21536,
    "ĠAlban": 57991,
    "Snapshot": 15359,
    "ĠGrim": 74404,
    "_Ad": 24773,
    "Ġsnapshots": 62923,
    "Ġdatabases": 32906,
    "-ci": 63484,
    "ĠnÄĽ": 100640,
    "Ġvyp": 108179,
    "A": 32,
    "Ġdesp": 40060,
    "zeitig": 99073,
    "×Ĳ": 59610,
    "Ġê°": 17196,
    "aintenance": 25577,
    "artner": 93407,
    "IVITY": 30211,
    "<|python_tag|>": 128010,
    "Ð»ÑĸÐ´": 104370,
    "ĉDEBUG": 53446,
    "Ġä¸ĩåĨĨ": 118940,
    "ĠyAxis": 63678,
    "hind": 75038,
    "Ġelgg": 96753,
    ".async": 25778,
    "Del": 16939,
    "ssh": 26618,
    "ysl": 104501,
    "ÛĮØª": 100546,
    "Ġavoidance": 65411,
    "Ġmuit": 54860,
    "legg": 84128,
    "ĉSo": 78012,
    "èµ": 28425,
    "\",$": 18466,
    "Ġremote": 8870,
    ".unshift": 52261,
    "_route": 29209,
    "Ġsd": 21231,
    "svp": 81706,
    "Ġdome": 58438,
    "Ġarz": 124372,
    "catid": 79777,
    "Ġbankers": 64243,
    "Ġsun": 7160,
    "ambda": 5816,
    "ÏĩÎ®ÏĤ": 125868,
    "anche": 29097,
    "@Before": 78409,
    "PK": 23037,
    "ÙĩØ±": 100754,
    "æĿ¿": 88631,
    "ĠPence": 47060,
    "è¾ĵåħ¥": 32296,
    "/api": 10729,
    "ĠRena": 49894,
    "163": 9892,
    "ĠëĬĺ": 121056,
    "$str": 43857,
    "Ġà¸£": 100839,
    "Ġrollers": 89713,
    "Ø§Ø±ÙĬØ©": 110092,
    "/games": 89411,
    "istinguish": 89747,
    "Ġcms": 27366,
    "Ġé¡¹": 121462,
    ";k": 36096,
    "Ġclit": 92862,
    "*/,": 30878,
    "Ġpreferred": 15236,
    "uerdo": 53570,
    "ĠÐ²Ð²ÐµÐ´": 117589,
    "ĠÐ½Ð°ÑħÐ¾Ð´Ð¸ÑĤÑģÑı": 115365,
    "Ġpaintings": 36692,
    "ĠEk": 50088,
    "ĠØªØŃÙĤÛĮÙĤ": 108832,
    "rium": 41552,
    "venida": 88295,
    "relay": 91991,
    "ĠÐ½Ð°": 13373,
    "Ġgratuit": 11636,
    "ĠìĹĲ": 91586,
    "Needs": 66164,
    ".sendKeys": 72414,
    "ĠClarence": 88830,
    "Ġwatcher": 56827,
    "_role": 20378,
    "ê²ł": 103373,
    "']:Ċ": 18888,
    "Ð°Ð»Ð¸Ð·Ð°ÑĨÐ¸Ð¸": 118248,
    "Ø¯ÙĪØ¯": 108872,
    "/perl": 78222,
    "ampilkan": 97413,
    "ĠCurry": 47075,
    "planes": 39157,
    ".instances": 82372,
    "ĠCunningham": 74928,
    "umuz": 107265,
    "Ġpeacefully": 67879,
    "er": 261,
    "Ġdosud": 126076,
    "Ġcockpit": 60724,
    ">null": 53972,
    "ounds": 3171,
    "ĠãĢĢãĢĢãĢĢ": 104092,
    "ĠLiquid": 42358,
    "wifi": 68381,
    "iz": 450,
    "_dr": 27778,
    "Ġzv": 101569,
    "Ġstati": 96977,
    "ovaly": 112116,
    "dcc": 88064,
    "izzato": 92938,
    "ÑĸÑĩÐ½Ð¸Ñħ": 111642,
    "\"):": 38151,
    "Ġdoubted": 93762,
    "Ġenzyme": 49242,
    ".returnValue": 74550,
    "ĠBaldwin": 56018,
    "'d": 4265,
    "ÏĥÏĥÏĮÏĦÎµ": 114245,
    "Ġantioxidants": 81115,
    "ÃŃan": 42550,
    "Ġcigar": 54774,
    "Ġindividuals": 7931,
    "Ġrencontr": 66283,
    "ĠÐ·Ð¼": 118046,
    "Ġcert": 2847,
    "()));čĊ": 33031,
    "=ax": 72763,
    "Ġlon": 18285,
    "ĠSlovakia": 81785,
    "Ġalmonds": 88922,
    "ĠWellness": 61283,
    "typeorm": 81159,
    "Æ°Æ¡i": 110940,
    "ç±»åŀĭ": 33005,
    "ĠBasics": 68276,
    "ĠHello": 22691,
    "ĠDungeons": 94101,
    "Displayed": 57547,
    "ÑĥÑĶÑĤÑĮÑģÑı": 104404,
    "Ġsusp": 9482,
    "à¹ĩà¸Ī": 107262,
    "ĠÑģÑĤÐ¾": 104578,
    "creasing": 76562,
    "=batch": 72898,
    "à¸Ķà¸§à¸ģ": 120666,
    "_disc": 38845,
    "Ġ[@": 74979,
    "override": 9380,
    "hz": 38359,
    "_velocity": 40766,
    "ĠProbe": 78378,
    "Ġcarefully": 15884,
    "THING": 57764,
    "à¸Ńà¹Ģà¸£": 118492,
    ".aut": 32155,
    ".XML": 49226,
    "Scores": 57036,
    "ĠÑįÑĦÑĦÐµÐºÑĤÐ¸Ð²": 110679,
    "();": 2178,
    "Ġ'>": 57007,
    "_handling": 76742,
    "Ġinformace": 107355,
    "ĠNaj": 67453,
    "bower": 58049,
    "_assign": 21345,
    "Ġ(?)": 77640,
    "ÏĥÏĦ": 101190,
    "ĠBarth": 89764,
    "ÑĢÑĸÐ²": 104288,
    ".fetch": 16512,
    "Clinical": 96830,
    "ĠAlternate": 75824,
    "ĠKG": 71187,
    "Centre": 92050,
    "ProcessEvent": 76102,
    "ĠXu": 57514,
    "Bulletin": 99735,
    "Ġundermine": 43047,
    "ANCH": 43033,
    "Äįel": 115551,
    "ï½Ĭ": 120780,
    "maps": 18106,
    "Ġatmospheric": 45475,
    "(bt": 69517,
    "Ġevidence": 6029,
    "Ġresilience": 56062,
    "ĠIHttp": 74619,
    "Diese": 81615,
    "OOSE": 84340,
    "ingt": 76019,
    "ItemClickListener": 38429,
    "ĠëģĿ": 110154,
    "ĠGareth": 88147,
    "akukan": 51095,
    "_boot": 53162,
    "_label": 6234,
    "ĠFlag": 23497,
    "ĠPennsylvania": 20355,
    ".warn": 22123,
    "Ġaba": 75891,
    "Ð½Ð¸ÑĤ": 103459,
    ".High": 47778,
    "ĠiÅŁaret": 112021,
    "Ġ&(": 23639,
    "ĠCoast": 16377,
    "åŃ¸æł¡": 126684,
    "ĠNick": 15341,
    "Ġpressured": 75451,
    "(Xml": 57977,
    "ĠFreder": 36532,
    "ĠÎ¦": 101989,
    "Ġbeliever": 62379,
    "_soft": 39426,
    "ĠCHANGE": 44139,
    "ĠØ´ÛĮØ±": 112786,
    "Ġpersonne": 54613,
    "çŃĨ": 116882,
    "_SPEED": 31491,
    "already": 46584,
    "å¦Ĥ": 30624,
    "ĠTit": 24977,
    "-login": 36148,
    "Ġparsley": 88621,
    "ĠØªØ§Ø±ÛĮØ®": 104793,
    "ĠPrism": 73031,
    "msg": 3316,
    "RODUCTION": 91199,
    "Ġcaratter": 91750,
    "ãĤ¸ãĥ£": 106901,
    ",#": 39998,
    "common": 5581,
    "ElementsByTagName": 62389,
    "ĠWINDOWS": 76265,
    "Ġà¤®à¤£": 122197,
    "ĠHop": 26634,
    "265": 14374,
    "ĠTories": 67069,
    "à¹Įà¸ķ": 106323,
    "Ġspheres": 66818,
    "upper": 13886,
    "lerine": 103032,
    ".ne": 23456,
    "ĠÚ©ÙĪÚĨÚ©": 116146,
    "Ġchord": 44321,
    "Ġtruy": 116911,
    "/request": 54107,
    "_css": 27013,
    "ĠAnimals": 47966,
    "Ã©se": 92252,
    "uelle": 31037,
    "ĠLikely": 94737,
    "Ġautism": 38281,
    "!')Ċ": 37280,
    "_DISPLAY": 38679,
    "Ġcompr": 13550,
    "_environment": 52874,
    "Ġmohlo": 127297,
    "ĠÃ¼zer": 92657,
    "ĠÃħ": 80352,
    "LatLng": 66022,
    "},ĊĊ": 16143,
    "album": 21687,
    "æ¾": 105444,
    "ĠØ±Ø³ÙħÛĮ": 118731,
    "Describe": 75885,
    "ĠSutton": 74113,
    "ĠTITLE": 49673,
    "ĠmouseY": 69147,
    "Ġçķ": 107929,
    "razy": 12350,
    "ĠStrawberry": 89077,
    "ĠCoke": 74362,
    "ĠICU": 85015,
    "ĉDWORD": 45270,
    "Ġmakeup": 27649,
    "_platform": 35360,
    "Ġnervous": 23418,
    ".Assembly": 90717,
    "-body": 9534,
    "ĠHaziran": 111586,
    "ĠÎºÎ±á½¶": 117722,
    "ĠNun": 64778,
    "ĠAcres": 83559,
    "_factors": 74140,
    "_levels": 38919,
    "ĠRc": 82563,
    "Ġsuccess": 2450,
    ".ant": 81837,
    "()=>": 93615,
    "ĠÑģÑĭ": 107222,
    "ĠTamil": 44883,
    "ĠDRM": 61497,
    ">Delete": 97304,
    "à¸¢à¸°": 111445,
    "Ġdolphin": 99269,
    "546": 22048,
    "ough": 1409,
    "ĠSpoon": 94613,
    "Ġlogistical": 96968,
    ".fxml": 53960,
    "Ġidentical": 20086,
    "Ġber": 10418,
    "534": 22467,
    "FilterWhere": 84799,
    "sprite": 33741,
    "lan": 10946,
    "_cash": 65463,
    "Ġapex": 72627,
    "ĉnull": 61374,
    "Ġtienes": 72197,
    "Gro": 77435,
    "ĠRC": 22322,
    "_Delete": 58518,
    "_third": 80619,
    "Ġcheat": 41868,
    "(tok": 67953,
    "Ġhalted": 61195,
    "Ġkeeper": 54516,
    "cents": 39428,
    "-helper": 78764,
    "Ġmatchmaking": 63087,
    "Ġvoid": 742,
    "à¸µà¸¢": 99030,
    ".Txt": 82277,
    "(instance": 22384,
    "ĠChildren": 15394,
    "Ġzelf": 60111,
    "Ġtechnician": 54611,
    "bash": 47316,
    "ÐµÑĨ": 101401,
    "(gr": 37063,
    "~": 93,
    "ĠìĿ´íķ´": 117210,
    "ournals": 33714,
    "Vertex": 8484,
    "cor": 6133,
    "+W": 98983,
    "NIL": 78058,
    "ĠCommercial": 28943,
    ".addItem": 37980,
    "yellow": 28969,
    "eight": 68632,
    "Ġemanc": 91225,
    "Ġsaturated": 50585,
    "Ġconcerted": 97666,
    "ĠÑģÐ¾Ð±Ð¾Ð¹": 109802,
    "_inventory": 51573,
    "Ġjoueur": 77049,
    "ĉGameObject": 54620,
    "ĠØ®ÙĦÙĤ": 125739,
    "Ġtether": 80665,
    "_photo": 33485,
    "ÏĥÎ¿": 103581,
    "Ġparticipant": 25923,
    "$key": 69511,
    "-aligned": 98551,
    ",in": 54788,
    "Ġagile": 62565,
    "IVING": 73246,
    "ĠisEqual": 22044,
    ".Footer": 90583,
    "//------------------------------------------------------------------------------------------------": 57442,
    ".Css": 90638,
    "ĉfill": 66948,
    "ĠDu": 16062,
    "Ġbarley": 81817,
    "Ġmann": 38908,
    "Ġdental": 29106,
    "Ġrepay": 54438,
    "Ġtogether": 3871,
    "Ġ'_'": 36402,
    "íĹ": 101350,
    "antly": 18007,
    "ĠLuna": 50905,
    "Ġeffortless": 80192,
    "ĠsuÃ§": 109993,
    "\\TestCase": 59959,
    "Ġenum": 7773,
    "LET": 21419,
    "wald": 54006,
    "Ġcollusion": 69437,
    "ĠWishlist": 85857,
    "Ġdemon": 7097,
    "Normalize": 88924,
    "Ġéĥ¨": 112675,
    "/raw": 77009,
    "ĠThrow": 32445,
    "ìĿµ": 108964,
    "eview": 124281,
    "Ġpersone": 61788,
    ".Ptr": 96089,
    "ĠÐ±ÑĥÐ´Ñĥ": 119268,
    "ĠÐ½ÐµÐ¿Ð¾ÑģÑĢÐµÐ´": 123895,
    "_interp": 69811,
    ".mvc": 61467,
    "ANGE": 11762,
    "ĠÎĳÏĢ": 115006,
    "Ð²Ð°Ð»": 105928,
    "ãģ¨ãģĨ": 78699,
    "ĠÎ¤Îµ": 124414,
    "eleri": 101873,
    "Ste": 21573,
    "<>();čĊ": 51821,
    "ValueCollection": 87815,
    "ĠBord": 98985,
    "Ġauthenticated": 38360,
    "ÑĢÐµÐ¼": 50681,
    "Ġpresentations": 38480,
    ".coords": 45094,
    "çļĦäºĭ": 107381,
    "appid": 59442,
    "Ġëŀ": 112451,
    "ĠDecomp": 63478,
    "rade": 50176,
    "åģľ": 95475,
    "Ġgrown": 15042,
    "pai": 86059,
    "Ġblockers": 84235,
    "entes": 21938,
    "Ġphotograph": 10512,
    "ĠÐ¿Ð¾ÑĢÑĥÑĪÐµÐ½Ð½Ñı": 122038,
    "Ġordering": 22106,
    "åĸĬ": 123905,
    "ĠBerlin": 20437,
    "Ġexplo": 7684,
    "Ġrio": 95804,
    "Ġprivate": 879,
    "ĠWel": 26056,
    "'),ĊĊ": 53438,
    "implemented": 55171,
    "ĉĠĠĠĠĠĠĠ": 7624,
    "ĠPÅĻed": 108894,
    "à¤Ĥà¤§": 103286,
    "ĠLaser": 40708,
    "ĠProfile": 12609,
    "Ġoccupying": 72280,
    "Installing": 63703,
    "Î¹Î½Î®": 120198,
    "ÐŀÐĴ": 106062,
    "çĢ": 112086,
    "Ġcaliente": 98415,
    "Ġlocaltime": 88594,
    ".Message": 8639,
    "Ġclientele": 97272,
    "Ġvc": 25571,
    "ĠDesigner": 15940,
    "ãĥ³ãĥĪ": 52414,
    "Ġtravelers": 40386,
    "Ġesc": 3920,
    "Ã¡veis": 84112,
    "ĠJR": 53666,
    "Ġfunkce": 118936,
    "iph": 15619,
    "Ġliabilities": 58165,
    "since": 11536,
    "ĠWrites": 54388,
    "éĺħè¯»": 108414,
    "Cisco": 92137,
    "FormGroup": 42422,
    "bite": 91035,
    "ĠIndoor": 64368,
    "Ġzahl": 89728,
    "nÄĽte": 117394,
    "åĲĮ": 42016,
    "ĠSupplements": 92410,
    "Ġborough": 66841,
    "Ġunsure": 44003,
    ".tableView": 30822,
    "ä¼´": 112183,
    "Ġjersey": 37212,
    "Ġnap": 26944,
    "ĉheaders": 68478,
    ".mapbox": 99318,
    "ÑĢÐµÐ¼Ñı": 120130,
    "Ġairplanes": 76481,
    "à¸´à¸Ĺà¸¢à¸²à¸¥": 109505,
    "Ġmembr": 31819,
    "à¤¸à¤²": 115125,
    "_sid": 54144,
    "ë°Ģ": 105711,
    "(simp": 84371,
    "kip": 13694,
    "ĠLahore": 99189,
    "ĠLÃ¶s": 90552,
    "Ġzengin": 117249,
    "394": 20077,
    "Ġpurification": 94536,
    ".sendMessage": 30942,
    "irector": 66576,
    "995": 22101,
    "ĠdoÄŁal": 113034,
    "Ġelimin": 38416,
    "ĠÑģÐµÐ¼ÐµÐ¹": 125397,
    "Quiet": 96084,
    "_NPC": 92669,
    "Ġfountain": 57713,
    "ĠMeta": 16197,
    "Ġá»Ł": 100788,
    "|=": 88903,
    "Clinton": 51308,
    "ans": 598,
    "much": 59178,
    "Ġcarved": 49267,
    "æĤ£": 111694,
    "Ġbá»ĭ": 100947,
    "çĹ": 101576,
    "angle": 4134,
    "Ġcir": 30570,
    "egrated": 48272,
    "ĠĠĠĠĠĠĠĠĠĠĠĠĠĠĠĠĠĠĠĠĠĠĠĠĠ": 3586,
    "ÅĻil": 110716,
    "ÙĪØ§": 102237,
    "ĠDrop": 16110,
    "-K": 16222,
    ".ResponseBody": 75201,
    "!\";čĊ": 94497,
    "-tier": 58355,
    "Ġfifo": 64597,
    "Ġsuperhero": 46244,
    "ï¼ģï¼ģ": 32351,
    "ÑīÐ¸Ð¼Ð¸": 111139,
    "EMALE": 89399,
    "_EC": 70610,
    "ĠOrange": 22725,
    "à¸µà¸ļ": 116855,
    "gm": 27278,
    "ĠWolfe": 80652,
    "ĠfirstName": 21723,
    "Ġheard": 6755,
    "Ġmetre": 82673,
    "Ġpercentages": 54208,
    "_OPCODE": 74180,
    "agers": 11467,
    "Ġdenominator": 48012,
    "ĠJest": 94569,
    "Politics": 97036,
    ".pictureBox": 16518,
    ".IsFalse": 70427,
    ".and": 35824,
    "Ġnewer": 26627,
    "ADIUS": 45671,
    "ìľ¡": 102946,
    "opencv": 44295,
    "Bulk": 89294,
    "REPORT": 79231,
    "(rank": 71976,
    ".convert": 24973,
    "(NULL": 11260,
    "ĠÑģÐ¾Ðº": 109924,
    "Ġcapable": 13171,
    "dom": 5717,
    "ĠCostume": 64789,
    "ĠCanter": 75993,
    "Ġpassive": 28979,
    "ĠRFC": 40333,
    "ĠEmma": 36035,
    "é£Ł": 102456,
    "Ġcoherence": 78925,
    "CAD": 49670,
    "ĠSevilla": 95994,
    "382": 18781,
    "Ġpositions": 10093,
    ".Dict": 72201,
    "quisar": 96335,
    "ĠTiny": 49074,
    "Ġchave": 98735,
    "ĠElection": 26838,
    "(xpath": 61772,
    "Ġamerica": 64766,
    "Ġhated": 38674,
    "ĠØ§ÙĨÚ¯ÙĦÛĮØ³ÛĮ": 105967,
    "yster": 22604,
    "è®ĵ": 114816,
    "ĠSears": 74334,
    "ĠÐºÑĸÐ½": 110017,
    "iggers": 22099,
    "ÃŃv": 59211,
    "(selector": 47518,
    ".xlsx": 47938,
    "à¥ĩà¤µà¤²": 108956,
    "Cre": 10987,
    "Ġbunu": 107388,
    "Ġappet": 30168,
    "Ġdownward": 45578,
    "åįģåħ«": 123709,
    "ĠÐ´Ð¾ÑħÐ¾Ð´": 110273,
    "Ġìłģ": 103607,
    "igidBody": 70281,
    "Ġsteadily": 43071,
    "Ð¸Ð½Ñĸ": 113742,
    "clause": 83182,
    "ulant": 69733,
    "ĠÙħØ¹Ø¯": 116810,
    "ĠÄĳá»ĭa": 103077,
    "ĠJake": 33172,
    "\\:": 67023,
    "[iVar": 98093,
    "Ġbulun": 101018,
    "é©±": 119315,
    "ĠÐ°Ð´Ð¼ÑĸÐ½ÑĸÑģÑĤÑĢÐ°": 114072,
    "-notch": 78611,
    "Ġcream": 12932,
    "Ġinstall": 4685,
    "nÄĽ": 100292,
    "Ġyc": 82958,
    "*I": 90342,
    ");;Ċ": 94997,
    "etch": 3068,
    "={({": 83966,
    "const": 1040,
    "Ġbtc": 87137,
    "Î¿ÏĤ": 100789,
    "Ġdims": 41988,
    "ollapsed": 68074,
    "ĠNebraska": 38379,
    "Ġinline": 7533,
    "ĠSix": 19198,
    "Ġinvestor": 30693,
    "credentials": 33453,
    "ĠìĪĺíĸī": 125201,
    "IT": 964,
    "ĠDud": 74267,
    "ĠÑģÑĤÐ°Ð½Ð¾Ð²Ð¸ÑĤÑĮ": 123534,
    "ĠÏĢÏģÎ¿ÏĤ": 114742,
    "Prepare": 51690,
    "ãĢģĊĊ": 28918,
    "_vc": 74496,
    "ĠAdapt": 59531,
    "ployment": 53899,
    "accum": 40031,
    "ÏĥÏĦÏģÎ¿": 124506,
    "à¹Ħà¸Ĥ": 111288,
    "ĠsÄ±nÄ±f": 108120,
    "SupportActionBar": 46330,
    "à¹ģà¸ľ": 109097,
    "Partial": 38414,
    ".dk": 72166,
    "Ġ=>Ċ": 6408,
    "ĠSemester": 87948,
    "Ġbottom": 5740,
    "Ġdiverse": 17226,
    "Ġà¤¬à¤¯": 126154,
    "Ġfingert": 64703,
    "ĠeBook": 58610,
    "Ġgratuitement": 93034,
    "(Duration": 65214,
    "dress": 69334,
    "Ġdivided": 18255,
    "ĠphÆ°á»Ŀng": 126620,
    ".check": 9271,
    "/logging": 81174,
    "]?": 51064,
    "assa": 56692,
    "Ġneighbourhood": 40442,
    "currency": 16353,
    "Chem": 64938,
    "ĠMidwest": 52257,
    "-neutral": 92322,
    "Ùª": 115699,
    "getParameter": 63749,
    "à¸Ļà¹ĥà¸Ī": 121596,
    "Ġoli": 60236,
    "ĉmemset": 24631,
    "axed": 52551,
    "PROPERTY": 67332,
    "igraph": 54967,
    "ĠInfect": 88911,
    "ï¾ĳ": 114869,
    "ĠpÃŃs": 108816,
    "ĠtakovÃ½": 126747,
    "ĠBud": 37235,
    "Ġhabitual": 84820,
    "Ġ\"~/": 49288,
    "Ġartillery": 54235,
    "ĠMaxim": 56625,
    "Ġhn": 96338,
    "ĠEstimated": 83086,
    "Ġì¡´ìŀ¬": 119097,
    ".Minimum": 55068,
    "<|reserved_special_token_192|>": 128200,
    "osite": 88842,
    "Ġranch": 39161,
    "Ġedges": 13116,
    "ĠCombo": 54123,
    "Ġveter": 12854,
    "å¯": 15973,
    ".accuracy": 99395,
    "Fa": 48334,
    "Ã¡tky": 108653,
    "Ġunwilling": 46243,
    "Ġquel": 26077,
    "Ġlegitimate": 23583,
    "'></": 19887,
    "ëĨ": 105682,
    "ĠPremi": 117170,
    "_ps": 27139,
    "ImagePath": 67456,
    "Ġsecondary": 14580,
    "_cycles": 70070,
    "ĠmÅ¯Å¾": 105452,
    "ĠìĿ´ëŁ¬íķľ": 122016,
    "proc": 16159,
    "æĹħè¡Į": 120523,
    "ĠESV": 84111,
    "Ġring": 10264,
    "\"?ĊĊ": 94770,
    "åħ¬": 35417,
    "Ġê·¼": 106589,
    "ĠTaco": 79997,
    "ÑĢÑĸÐ´": 127203,
    "bounding": 62679,
    "Ġla": 1208,
    "_centers": 81279,
    "ì¤Ħ": 115087,
    ".Inf": 34621,
    "ìŀħëĭĪëĭ¤": 80052,
    "ĠAlphabet": 63897,
    "ĠnÃºmero": 31311,
    "bilt": 70824,
    "utorials": 56027,
    "è¡Ľ": 108581,
    "idla": 110244,
    "Ġiff": 52208,
    "ĠVa": 27713,
    "(web": 40869,
    "Ġinsulting": 68192,
    "Ġdiscard": 38967,
    "Won": 76936,
    "Sports": 42079,
    "ĠRetro": 37626,
    "opleft": 77352,
    "ĠGreenwich": 86938,
    "breadcrumb": 25216,
    "Ġafin": 54401,
    "Ġ'\"';Ċ": 95435,
    "#g": 47252,
    "ĠBeverly": 58774,
    "ĠččĊ": 95791,
    "ÑıÑĤÐ¸": 102629,
    "Ġflooding": 39262,
    "EFI": 57809,
    "Ġstandpoint": 51882,
    "Ġforeground": 40405,
    "ĠDun": 29838,
    "Euro": 98527,
    "unchecked": 32784,
    "ĠFehler": 92365,
    "<Func": 46801,
    "sizei": 61743,
    "ĠTRAIN": 68609,
    "azole": 77001,
    "å¥¹": 100911,
    "ĠFontStyle": 77327,
    "_dictionary": 43705,
    "Ġinvade": 75272,
    "Ġvaluation": 51262,
    "_PASSWORD": 23928,
    "renc": 63934,
    "à¹Įà¸ŀ": 121573,
    "_ls": 54274,
    "Ġsocket": 7728,
    "Ġwur": 21248,
    "naÄįenÃŃ": 125140,
    "ĠLibertarian": 85823,
    "Ġbuck": 22786,
    "ĠÐ¿Ð¾Ð³Ð¾Ð´": 122555,
    "translator": 45457,
    "Ġfollows": 11263,
    "(z": 13476,
    "ìĬ¤ë¡ľ": 124983,
    "Rain": 60139,
    "\">{{": 14436,
    "ÙĥÙĪÙħØ©": 121284,
    "ĠWeekly": 34114,
    "cdn": 12534,
    "Ġihn": 41762,
    "Ġgri": 23854,
    "ĠLan": 35882,
    "ĠSimply": 29524,
    "ĠQMainWindow": 94022,
    "(Search": 74654,
    "_St": 71745,
    "å¤§éĩı": 122333,
    "Ø¸ËĨØ·": 126424,
    "_questions": 56148,
    "Ġ.$": 46477,
    "ĠUTIL": 69207,
    "Ġdise": 6759,
    "Ġ/>": 6338,
    "Ġdie": 2815,
    "ĠTIME": 23029,
    "Ġanti": 7294,
    "ĠMorrow": 87374,
    "ĠPEM": 97834,
    "Ġyol": 94582,
    "quets": 91691,
    "Ġaloud": 71511,
    "intro": 37542,
    "á»īnh": 113593,
    "ĠBÄ°R": 122751,
    "ite": 635,
    "Ġorm": 68702,
    "SES": 29095,
    "Ġyok": 90777,
    "ĠSkyrim": 66029,
    "Ġredd": 63244,
    "Ø¯ÙĪØ§Ø¬": 117328,
    "Ġdarker": 40130,
    "Ġspoj": 106659,
    "seek": 26797,
    ".AddParameter": 96581,
    "ellation": 43313,
    "Ġestimates": 17989,
    "Ø¨Ø§Ø¨": 112693,
    "ĠSU": 15857,
    ".\"\\": 44043,
    "ĠFoto": 50442,
    ".onDestroy": 58602,
    ".TRA": 41191,
    "Ġhelpless": 63628,
    "ĠÙħÙĪØ¶ÙĪØ¹": 105855,
    "ollar": 21999,
    "/O": 17991,
    "athroom": 78932,
    "Ġclashes": 52610,
    "à¥Ģà¤¡": 104686,
    "ĠkÃ©": 77538,
    "ĠÑıÐºÐ¾Ð¼Ñĥ": 116230,
    "ĠIslamist": 52593,
    "Ġì¤ĳìĭ¬": 122169,
    "ĠChelsea": 27616,
    "Ġoxidative": 79401,
    "Ġcyn": 48364,
    "ĠReload": 57441,
    "ĠMáº·t": 126787,
    "slack": 89648,
    "æĢĿ": 91763,
    "Ġfinns": 74165,
    "ĠØ£ÙĨÙĩØ§": 125356,
    "-vector": 66292,
    "drop": 6861,
    "ĠNapoli": 86776,
    "Ġanother": 2500,
    "Ġlettuce": 71655,
    "angep": 56951,
    "[name": 11174,
    "ĠGive": 21335,
    ".EventQueue": 95202,
    "(att": 66837,
    "Ġ/^[": 76436,
    "thest": 61943,
    "Ġzw": 25398,
    ".land": 88727,
    "Ð»ÑıÑĤÑĮ": 106388,
    "Ġfuncion": 28963,
    "Ġpolitical": 5054,
    "wanted": 87692,
    "ĠNeue": 76663,
    "rede": 92761,
    "nown": 4262,
    "íĩ´": 124921,
    "Ġverde": 74261,
    "ĠÏĥÎ±ÏĤ": 109245,
    "ĠCREATE": 31876,
    "]).Ċ": 62361,
    "_BEGIN": 27480,
    "âĢŀ": 56163,
    "ĠCrom": 92707,
    "DeltaTime": 94148,
    "ĠConfederate": 57457,
    "æıĲç¤º": 46239,
    "ĠtextBox": 19982,
    "ĠScho": 57284,
    "weise": 42310,
    "Ġbourgeoisie": 94886,
    "ĠvzdÃ¡len": 124843,
    "Ġmeasured": 17303,
    "ĠTEST": 13916,
    "_hero": 79816,
    "ĠPause": 50756,
    "abilit": 46500,
    "Ġscm": 86620,
    "ĠÑĥ": 14257,
    "ĠØ¹ÙĪØ§ÙħÙĦ": 118524,
    ".push": 2615,
    "(book": 34230,
    "Ġsupp": 91135,
    "-options": 40833,
    "Ġcinemas": 98707,
    "ĠkÄ±ÅŁ": 127398,
    "WithValue": 23607,
    "llum": 5565,
    "çİ²": 119944,
    "Ġentities": 15086,
    "ĠMazda": 63042,
    "ĠÑģÐ¿Ð°Ñģ": 125474,
    "ĠMinneapolis": 42958,
    "Writer": 6628,
    "ĠREALLY": 66800,
    "Ġppl": 89528,
    "Ġæ¥Ń": 123057,
    "ĠBecky": 88701,
    "-Mart": 65256,
    "å¤ĦçĲĨ": 55642,
    "ĠStarr": 76122,
    "Ġzas": 105860,
    "Ġdropped": 12504,
    "ĠProgramme": 47516,
    "ĳ": 239,
    "Ġaffili": 12204,
    "ĠDeep": 18682,
    "ĠObjects": 25083,
    "paralle": 65861,
    "ĠìķĦë²Ħì§Ģ": 123816,
    "ĉstream": 45540,
    "Ġinicio": 51434,
    "ugged": 20752,
    "ãģŁãĤģ": 103846,
    "shoot": 68392,
    "Ġkenn": 75361,
    "ĠSidney": 76996,
    "Flight": 46405,
    "ĠFilme": 97285,
    "ĠBuild": 8012,
    "ĠØ£Ø¹ÙĦØ§Ùħ": 115374,
    "Licensed": 59747,
    "anlar": 111038,
    "ãĤ¶ãĤ¤ãĥ³": 126590,
    "ĠTea": 31125,
    "Ġchambers": 53279,
    "(xx": 65063,
    "inin": 65544,
    "Ġcuerpo": 63613,
    "Ġmanner": 11827,
    "Û²Û¹": 119675,
    "Mary": 42584,
    "éŃ¯": 126146,
    "ĠLocated": 42867,
    "ĠTabs": 53714,
    "$db": 23968,
    ".restaurant": 88149,
    "ĠNavy": 19574,
    "ÏĮÎ½": 103164,
    "Tw": 23662,
    "ĠDonovan": 71800,
    "Ġtherapists": 68616,
    "(SP": 87603,
    "_OVERRIDE": 50472,
    "Ġxpath": 65625,
    "ĠnextProps": 68422,
    "auses": 36243,
    "agi": 37135,
    "ÙħÙĬ": 111431,
    "ĠØ¬ÙĦÙĪ": 118919,
    "Jonathan": 66091,
    "ÑĨÑĸÑİ": 103781,
    "ervention": 47698,
    "ï¼Įåħ¨": 126370,
    "ĠBroadcom": 97017,
    "(property": 27735,
    "Ġford": 45728,
    "etine": 86328,
    "Ġundergo": 37771,
    "Ġpayroll": 46208,
    "Ġcurrencies": 36702,
    "Î¼ÎµÏģÎ¿": 126225,
    "FIT": 68854,
    "íĬ¹ë³Ħ": 116428,
    "çļĦéĹ®é¢ĺ": 125648,
    "mant": 42551,
    "ĠBrexit": 24854,
    "dependency": 54790,
    "Ġcrossorigin": 32001,
    "ĠÐ¿ÑĢÐµÐ´Ð¿Ð¾Ñĩ": 121994,
    "\":\"\",Ċ": 43498,
    "Ġemlrt": 97312,
    "Ġpourquoi": 87320,
    "KeyEvent": 64096,
    "ĠKushner": 62431,
    "ĠKanunu": 123817,
    "itsu": 50657,
    "ĠReliable": 92663,
    "ĠElevated": 97693,
    "W": 54,
    "ĠEaster": 33500,
    "ERGE": 93597,
    "'il": 35329,
    "ï¼Įä½Ĩæĺ¯": 113673,
    ".home": 23399,
    "ifiÃ©": 90859,
    "ÑĳÐ»": 114046,
    ")}}": 53831,
    "mez": 83256,
    "Ġbyl": 101302,
    "Ġlange": 53387,
    "ÛµÛ°": 118226,
    "Title": 3936,
    "288": 15287,
    ".Parcelable": 99329,
    "ĠTrump": 3420,
    "Ġnettsteder": 44832,
    "pike": 65546,
    "/WebAPI": 95997,
    "ä¹ĭ": 55030,
    "Ġalone": 7636,
    "Ġstores": 10756,
    "(?:": 68250,
    "})();": 82274,
    "issen": 38064,
    "Ġdescendants": 49446,
    "ense": 1137,
    "ï¼Įå¹¶": 91495,
    "contrib": 48210,
    "amaha": 86313,
    "excel": 41624,
    "wx": 21659,
    "ĠØ£Ø¨": 109220,
    "ģ": 223,
    "ĠÐĴÐµÑĢ": 107447,
    "Display": 7165,
    "Ġmadrid": 65887,
    "Ã¢ncia": 66696,
    "Ġuphol": 70304,
    "(dirname": 39902,
    "Ġsizes": 12562,
    "_ACL": 98727,
    "ĠCIF": 98690,
    ".contentMode": 99405,
    "RowAtIndexPath": 34158,
    "Ġæ°¸": 124369,
    "GENER": 57072,
    "(position": 12752,
    "<|reserved_special_token_31|>": 128039,
    "KEN": 62929,
    "/km": 123624,
    "008": 11436,
    "à¸ĩà¸¡": 114499,
    "ĠÐ½ÐµÑģÐºÐ¾Ð»ÑĮ": 117064,
    "_RESOURCES": 91059,
    "!*\\Ċ": 91337,
    "ĠFBI": 14160,
    "ç¤¾": 61337,
    "ĠÑĥÑĩÐ°ÑģÑĤÑĮ": 114389,
    "Ġstrtok": 49445,
    "ĠEVEN": 27755,
    "Ġsneak": 45264,
    "æĤī": 123561,
    "ãĢĤãģĿãģĹãģ¦": 124845,
    "æķĪ": 60455,
    "Ġtrabaj": 39974,
    "ĠVÄĽ": 120251,
    "ĉfound": 59202,
    "_contrib": 93681,
    "ĠÛĮØ¹ÙĨÛĮ": 113345,
    "-*": 46003,
    "/date": 75664,
    "awner": 68293,
    "Ġå¾": 85241,
    "ship": 5383,
    "Ġiken": 127133,
    "Ġinp": 33444,
    ".symmetric": 46006,
    "073": 25779,
    "inha": 44338,
    "Credential": 49365,
    "ĠÑģÐ¾ÑģÑĤÐ¾ÑıÐ½Ð¸Ñı": 121317,
    ".bit": 31199,
    "_lambda": 52984,
    "[MAX": 19322,
    "ĠBelieve": 59121,
    "ĠëłĪ": 102638,
    "ĠbaÅŁk": 114362,
    "ĉview": 37967,
    "ĠuseHistory": 45133,
    "ĠConte": 94478,
    "Ġtoddlers": 79935,
    "serv": 31875,
    "Ø§Ø³ØªØ§ÙĨ": 111950,
    "ĠVaults": 94655,
    "588": 20691,
    "ipped": 6586,
    "ĠìķĬëĬĶ": 110661,
    "Ġconvent": 17120,
    "ĠÎ´ÏħÎ½Î±": 120989,
    "ĠostatnÃŃ": 119226,
    "_dirs": 45969,
    ".With": 27216,
    "eter": 1430,
    "-learning": 71856,
    "å¨ľ": 109190,
    "HeaderView": 80994,
    "ĠDavidson": 54345,
    "Ġze": 14017,
    "Ġconhec": 71583,
    ".urlencoded": 53797,
    "/ion": 85953,
    "Ġcared": 42777,
    "agma": 5835,
    ".Total": 37097,
    "_derivative": 97030,
    "ä¸ĸ": 101083,
    "Train": 35713,
    "ĠØ´Ø±": 101087,
    ":add": 39588,
    "-io": 87369,
    "_corner": 67984,
    "shield": 49052,
    "Ġgente": 44142,
    "Ġmondo": 70809,
    "lays": 64459,
    "depart": 33148,
    "Fans": 76887,
    "Lewis": 100172,
    "Tween": 65283,
    "ãģĹãģ¾ãģĻ": 78434,
    "ĠÏĩÎ±": 117822,
    ":)])": 96904,
    "utions": 4065,
    "ĠgetPlayer": 99137,
    "_valid": 8501,
    "Ġyielding": 78504,
    "ĠIRQ": 42768,
    "Ġë²": 48765,
    "-touch": 40026,
    "teams": 39596,
    "Ġdispersion": 86712,
    "Cleaning": 98281,
    "ĠSayÄ±": 127219,
    "Ġfrag": 8508,
    "ĉApp": 60657,
    "ĠìĭľíĹĺ": 112573,
    "olec": 12747,
    "://{": 82876,
    "ĠAngry": 78918,
    "Ġcaul": 86264,
    "zen": 5797,
    "à¹Ĥà¸¥à¸ģ": 107972,
    "ĠexpectedResult": 82541,
    "Ġbouquet": 92713,
    ".LENGTH": 15807,
    "ĠØ¹Ø¨Ø¯Ø§ÙĦÙĦÙĩ": 123115,
    "ĠcomeÃ§": 82247,
    "Ġfazer": 40945,
    "transparent": 29369,
    "ľëł¥": 58233,
    "(tab": 28945,
    "artin": 35945,
    "ĠLayoutInflater": 29669,
    "070": 17819,
    "_letters": 68430,
    "Ä±z": 48980,
    "Blockly": 42850,
    "å±ŀæĢ§": 80356,
    "Ġsave": 3665,
    "Ġ?>&": 67806,
    "Ġsong": 5609,
    "(dead": 84307,
    "ÏģÎµÎ¹": 116424,
    "BUILD": 48280,
    "tÃŃ": 109276,
    "rong": 14684,
    "Ġyerde": 114004,
    "ĠElaine": 83247,
    "(si": 77452,
    "ĉstrcat": 52217,
    "ĠÐºÐ¾Ñģ": 112151,
    "getText": 32398,
    "Choose": 25017,
    "Ð°Ð½Ð¸": 14332,
    "Ġkrij": 70537,
    "ĠIndividual": 30440,
    "ĠCreating": 32406,
    "ĠÐ¿Ð¾Ð´Ð°Ð²": 123245,
    "Ġclearer": 49479,
    "Î»Î¬": 103961,
    "Ġpounding": 70627,
    "Ġsentir": 75802,
    "å¦Ī": 111582,
    "anmar": 46816,
    "=https": 53099,
    "ÑĨÐ¸Ð¹": 104811,
    "Ġquizzes": 89323,
    "Ġsigh": 31238,
    "Ġsollten": 75553,
    ".times": 37385,
    "Ġtoprak": 113726,
    "Ġsusceptibility": 88636,
    "iku": 39342,
    "Ġcompart": 39667,
    "Ġserif": 90848,
    "Ġflavored": 88340,
    ":url": 36830,
    "Ġdisplays": 19207,
    "ĠJFactory": 75404,
    "Äĥm": 78454,
    "(summary": 83142,
    "_GPU": 69816,
    "_GF": 80465,
    "Ġdoen": 55002,
    "ese": 2423,
    "_WAIT": 33191,
    "placement": 16491,
    "Ġimagining": 77724,
    "Ġå¦Ĥ": 70472,
    "ĠConexion": 73568,
    "_cores": 94541,
    "olygon": 20154,
    "ĠRegistry": 33212,
    "Ġtested": 12793,
    "_weapon": 70575,
    "%/": 54481,
    "/course": 85449,
    "ãĤ·ãĥ§ãĥ³": 104272,
    "Ġuphill": 77758,
    "Ġvalidation": 10741,
    "emmel": 126267,
    "íķĺëĬĶ": 44005,
    "(tweet": 74610,
    "|unique": 94083,
    "wig": 38022,
    "Ġaccommodation": 28377,
    "554": 22303,
    "ĠPutin": 21810,
    "_CSR": 82549,
    "ĠBSON": 77335,
    "_SEPARATOR": 33343,
    "áº¬": 125612,
    "Ġmening": 67979,
    ".innerHeight": 55176,
    "_vendor": 59420,
    "Ġmá»ģm": 107967,
    "(foo": 72980,
    "ocoder": 51822,
    "Ġconvenient": 17125,
    "<|reserved_special_token_117|>": 128125,
    "Longrightarrow": 28742,
    "OLUMNS": 49870,
    "Ġinnocence": 57311,
    "Ġheavy": 8987,
    ".).ĊĊ": 75303,
    "Ġìĺģ": 101603,
    "Ġubiqu": 53336,
    "Ġverge": 59818,
    "ÏĦÎ¹ÎºÎ®": 103076,
    "ĠHow": 2650,
    "Ġblanco": 90647,
    "nger": 65167,
    "perty": 126960,
    "\"],[\"": 97926,
    "åĶĲ": 112609,
    "ĠBIG": 37954,
    "LOG": 7391,
    "Ġwizards": 89263,
    "(folder": 35029,
    "(doc": 19702,
    "ĠDesk": 39794,
    "Ġfluent": 58868,
    "Ġalo": 54266,
    "Ġvillages": 33889,
    "Ġnoticeable": 43426,
    "arias": 48213,
    "INO": 49075,
    "ollywood": 14447,
    "uencia": 65072,
    "ĉkey": 24555,
    "ĠCultural": 41333,
    "_SECURE": 78948,
    "ÏĦÎ¹ÎºÏĮÏĤ": 110718,
    "ĠHyundai": 60940,
    "says": 98036,
    "Ġcubic": 41999,
    "ĠÐ´ÐµÐ½ÑĮ": 103780,
    "phans": 85411,
    "åºĹ": 72516,
    "km": 16400,
    "ĠOct": 5020,
    "ĠÐ±ÑĥÐ´Ðµ": 105992,
    "Ġfullname": 62136,
    "Ġmultiplication": 47544,
    "estruction": 69802,
    "incess": 20141,
    "IELD": 10580,
    ".index": 5265,
    "ĠAcid": 50234,
    "ĠCGSizeMake": 79787,
    "'));ĊĊ": 22445,
    "(character": 51001,
    "washing": 98191,
    "-array": 63158,
    "Obviously": 49314,
    "Ġner": 41283,
    "Ġtedav": 115174,
    "against": 69849,
    "ìĽĮíģ¬": 126709,
    "ĠÚĨÛĮÙĨ": 120725,
    "%\",": 41292,
    "=max": 45717,
    ".walk": 52494,
    "=key": 87682,
    "Ð»Ð¾Ðº": 105449,
    "ÑĢÐ¾ÑĦ": 111705,
    "pesan": 97385,
    "à¸²à¸į": 112726,
    "åıĹåĪ°": 116576,
    "ĠSaving": 49538,
    "iors": 22625,
    ".Restrict": 91280,
    "ĠReally": 29308,
    "ĠrowData": 74758,
    "Ġnemovit": 126616,
    "ĠGLfloat": 47582,
    "Ð°ÑĢÑĸ": 114116,
    "manual": 20310,
    "ĠÚ©Ø§Ø±Ú¯Ø±Ø¯": 122915,
    "ĠLIGHT": 53303,
    "-Ðĳ": 119980,
    "eyer": 35472,
    "ĠBeg": 44793,
    "ĠChain": 29625,
    "Ġgraf": 59400,
    "ĠØ¹Ø´Ø±": 113275,
    "_php": 79647,
    "Ġ\"));Ċ": 61340,
    "{|": 47215,
    "ãģĻãģ¹ãģ¦": 122617,
    "ĉtrans": 73553,
    "_ATOMIC": 88943,
    "Ġkit": 16530,
    "ĠIce": 20534,
    "ĠåĽ½": 103774,
    "èĹĿ": 116178,
    "Ġdismiss": 13738,
    "Quality": 34174,
    "Ġantic": 88143,
    "ĉA": 23845,
    "collectionView": 43540,
    "-python": 73029,
    "ocÃª": 46859,
    ":'#": 55702,
    "_links": 26324,
    "-bedroom": 67967,
    "@test": 48427,
    "leting": 37035,
    "enne": 26193,
    "ĠKate": 30301,
    "ĠTwig": 42731,
    "ĠÐ¿ÑĢÑıÐ¼": 107783,
    "Ã¼lÃ¼": 113613,
    "icable": 75438,
    "_USAGE": 58390,
    "isations": 56276,
    "Ġpir": 30711,
    "Ġtháº¯ng": 110516,
    "æķ°éĩı": 82900,
    ".nativeElement": 49929,
    "Ġsupervisor": 38419,
    "Friday": 35720,
    "ĠkterÃ½m": 117246,
    "trinsic": 46102,
    "Mapping": 6950,
    "aggable": 85996,
    "aneous": 18133,
    "=open": 54065,
    "ĠkayÄ±": 108243,
    "prising": 34754,
    "BUR": 86194,
    "ĠFest": 39750,
    ".hy": 75321,
    "Ġbrazil": 97746,
    "Glass": 85103,
    "Ġexercitation": 99549,
    "Ġthreshold": 12447,
    "BeNull": 61460,
    "æ°ĹæĮģãģ¡": 120208,
    "ĠØ§ÙĦØ£ÙħØ±ÙĬÙĥÙĬØ©": 124819,
    "Ð·Ñĥ": 113071,
    "=response": 80190,
    "iom": 34695,
    "ĠBoys": 30857,
    "Ġthose": 1884,
    "}});Ċ": 72330,
    "........": 4095,
    "ĠFinds": 51730,
    "Ġproperties": 6012,
    "ĠDaniel": 15469,
    "Ġchu": 96899,
    "-validate": 90476,
    "Ġimmediately": 7214,
    "[d": 22142,
    "');\");Ċ": 98533,
    "\\D": 88299,
    "ĠaraÃ§": 108621,
    "ĠDragon": 16537,
    "ĠPlayerPrefs": 60383,
    "Ġfrightening": 54739,
    "Ġpopover": 90479,
    "Enc": 7560,
    "ĠĠĠĠĠĠĠĠĠĠĠĠĠĠĠĠ": 338,
    "123": 4513,
    "Ġpollen": 79784,
    "ĠÅŁar": 127550,
    "Ġexplosives": 57409,
    "ìĦ±ìĿĦ": 111490,
    "ĠCouples": 90250,
    "Ġphenomena": 44247,
    "Ġtecr": 124626,
    "Ġder": 2761,
    "ãĥŃ": 42634,
    "Ġcommunicating": 42247,
    "ORIZED": 66421,
    "igrations": 18303,
    "Ġkaum": 100125,
    "LinkedIn": 76303,
    "erence": 112265,
    "ĠFrances": 43833,
    "Ġfreeway": 84674,
    "ĠCounsel": 37745,
    "ĠFA": 15358,
    "Ġmagic": 11204,
    "oke": 4845,
    "ä¸Ńåįİ": 119635,
    "ĠAssigned": 63724,
    "ĠUhr": 39283,
    "','=',": 98737,
    "('''": 84534,
    "-ins": 22610,
    "dÄ±ÄŁÄ±nda": 125898,
    "Ġdismay": 73082,
    "ĠpreÃ§o": 98330,
    "orny": 80677,
    "ĠÐ¡Ð¿": 105782,
    "Ġà¤°à¤¸": 123800,
    ":maj": 60973,
    "ĠWrestle": 99399,
    "ĠsessionId": 55254,
    ".resize": 17838,
    "Ġlá»Ĺi": 115009,
    "_URI": 23990,
    ")âĢĿ": 99382,
    "(IO": 71801,
    "466": 21404,
    "Ġëªĩ": 113156,
    "_accepted": 91454,
    "Ġwym": 72341,
    "Tri": 22646,
    "890": 21381,
    "ĠÐ²ÑģÐµÐ³Ð¾": 104492,
    "ĠBelg": 23287,
    "ĠÐľÐ¸ÑħÐ°Ð¹": 117306,
    ".literal": 53908,
    "ÙħÙĬÙĦ": 107026,
    "response": 2376,
    "Ġushort": 44124,
    "acic": 94257,
    "ĠMedina": 85266,
    "WD": 18023,
    "Å¯Å¾": 108352,
    "76": 4767,
    "otes": 6429,
    "DH": 52426,
    "ÑįÐ¹": 125421,
    "Survey": 69115,
    "æ¸¯": 103354,
    "ĠKERNEL": 80791,
    "posted": 44182,
    "Ġhabits": 26870,
    "Ġpeanuts": 90177,
    "ĠØ¬Ø´ÙĨ": 122860,
    "Ġï¾Ĭ": 112381,
    "æĹłçłģ": 113565,
    "/)": 51907,
    "EditingStyle": 88527,
    "Ð¡Ð¡Ðł": 113059,
    "Ġtransf": 20429,
    "à¤¸à¤¨": 116805,
    ".PictureBox": 23667,
    "Direccion": 84005,
    "ĠPl": 1856,
    "Ð¾ÐºÐ¾Ð½": 127566,
    "_OD": 61526,
    "ä¹³": 111528,
    "ĠClaire": 43675,
    "Ð°ÑĤÐ°": 43203,
    "dire": 64684,
    "Ġìĭ": 30027,
    ">P": 30578,
    "ĠDuo": 74312,
    "ĠMICRO": 87265,
    ".Virtual": 97079,
    "Ġoverclock": 81294,
    "-te": 49893,
    "dg": 36238,
    "ĠUnderstand": 71994,
    "ainter": 74641,
    ".png": 3592,
    "Ġcandidate": 9322,
    "Ġsleeve": 37253,
    "WindowSize": 88917,
    "à¸²à¸Ĺ": 101144,
    "mediate": 14978,
    "à¸«à¸²à¸£": 106160,
    "Ġpartners": 8717,
    "ĠÐĿÐ°ÑģÐµÐ»ÐµÐ½Ð¸Ðµ": 119255,
    "á»ī": 72279,
    "Ġinterior": 15135,
    "xampp": 52892,
    "ĠÐĳÐ¾Ð»ÑĮÑĪ": 126837,
    "(W": 14358,
    "iche": 12333,
    "$IFn": 51840,
    "ĠÐ¿ÑĢÐ°Ð·Ð´": 127096,
    "alan": 33383,
    "spark": 54882,
    "ScrollView": 30197,
    "REL": 50151,
    "CONDS": 28002,
    "ãģ¾ãģ¨": 123011,
    "ĠFleet": 44555,
    "_BOTH": 83818,
    "Ø¨Ø§ÙĦ": 103151,
    "Ġbears": 30824,
    "åĪĨåĪ«": 121795,
    "}%": 44815,
    ".Map": 10312,
    "Ġhorrific": 47322,
    "Ġpetite": 38920,
    "------": 16974,
    "Enumerator": 10679,
    "amenti": 64580,
    "_sphere": 88073,
    "club": 20453,
    "Ø±Ø¯Ø¯": 118341,
    "ĠAdolescent": 98582,
    "Voltage": 95443,
    "è¾ħ": 124781,
    "ĠHO": 31350,
    "ĠLyft": 85539,
    "ĠStability": 81238,
    "Ġcloth": 28392,
    "à¥ĩà¤Łà¤°": 122999,
    "Ġprocedures": 16346,
    "Ġschw": 36615,
    "ĠÄįinnost": 122958,
    "Ġroutinely": 40076,
    "ayÄ±p": 126587,
    "orks": 74402,
    "Submission": 87721,
    "zeit": 30513,
    "contributors": 85455,
    "_re": 1311,
    "optim": 19680,
    "Ġpinned": 48809,
    "Ġìĭ¬": 106213,
    ")\";čĊ": 80246,
    "ĠOnTriggerEnter": 65204,
    "initialize": 22373,
    "Ġdisable": 11404,
    "361": 18277,
    "avatel": 115428,
    "è®¾æĸ½": 125710,
    "Listeners": 32670,
    "ĠVerfÃ¼g": 84379,
    "Ġwithd": 46074,
    "Keyword": 35581,
    "Ġnuru": 76211,
    "GenerationStrategy": 77645,
    "Ġhosts": 18939,
    "ĠCaliforn": 79869,
    "ĠÙĩØ§ÙĬ": 108898,
    "Ġcoincidence": 50278,
    "/show": 35275,
    "Ġå¥": 102601,
    "intval": 58702,
    "ĠæĪĳ": 106026,
    "elaide": 45193,
    "Ġyoung": 3995,
    "_PUT": 89529,
    "ĠEndpoint": 48369,
    "ĠÙĪØ§ÙĨ": 120511,
    "Ġflames": 39885,
    "ĠpÅĻen": 122232,
    "485": 19773,
    "ĉIt": 62635,
    "ĠÙĤØ§ÙĦ": 107581,
    "GetProcAddress": 98658,
    "ĠDisk": 39968,
    "ousands": 40137,
    "ĠEGL": 59755,
    "Ġdas": 6754,
    "ogany": 92832,
    "Ġarter": 47357,
    "malÄ±dÄ±r": 113457,
    "iso": 15782,
    "ĠÏĮÏĦÎ±Î½": 118337,
    "passed": 36522,
    "ĠÃ§Ä±kar": 104058,
    "_encode": 11473,
    "Ġsanat": 110479,
    "ĠWhatsApp": 41113,
    "Ã©li": 73511,
    "ä½ķãģĭ": 127091,
    "ĉar": 70440,
    "-sample": 84979,
    "Ð´ÐµÑĢÐ¶": 104951,
    "ÄĽji": 119460,
    "elijk": 33338,
    "é¡¹": 48982,
    "Slow": 59389,
    ">()->": 89480,
    "ãĥ«ãģ®": 114615,
    "ĠRandom": 10836,
    "Ġgrated": 97276,
    "ĠCardio": 92976,
    "-independent": 98885,
    "Ġ'%": 7832,
    "isSelected": 22501,
    "Ġboard": 4580,
    "Ġhyster": 54119,
    "Lost": 48353,
    "_extended": 62778,
    "_touch": 61940,
    "Ġ\"'.$": 70283,
    "å¿": 26203,
    "åı¶": 109339,
    "ÐµÐ´Ð¶": 119138,
    "Ġfaults": 57790,
    "Ġgained": 18661,
    "Ġcurated": 58732,
    "REW": 94252,
    "ĠÐ´Ð¾ÐºÐ°Ð·": 118182,
    "ĉULONG": 97545,
    "ĠUITableView": 14116,
    "ĠValidator": 33666,
    "Ġrepairs": 31286,
    "ĠÐľÑĥ": 127278,
    "_management": 46463,
    "ĠÐ´Ð¸Ð·Ð°": 120581,
    "Ġà¤¶à¤¤": 127666,
    "Ġtremendously": 72423,
    "[R": 46087,
    "Ġreservation": 28767,
    "enderit": 98568,
    "<|reserved_special_token_163|>": 128171,
    "papers": 48393,
    "libraries": 64149,
    "'autres": 81979,
    "DEVICE": 42851,
    "opathic": 62209,
    "ogra": 92241,
    "ĠJudiciary": 53129,
    "Ġdemonstrators": 67508,
    "-post": 25414,
    ".ld": 93557,
    "uable": 13429,
    ",z": 23500,
    "æĻº": 105487,
    "Create": 4110,
    "Input": 2566,
    "Ġepidemic": 42620,
    "*n": 24942,
    "Ġattributed": 30706,
    "Î»ÎŃ": 103510,
    "ëł¬": 127139,
    "íķĺëĬĶëį°": 127369,
    "Ġannum": 87757,
    "Ġcollector": 33053,
    "ĠLn": 98919,
    "_UDP": 76301,
    "_saved": 54809,
    "imates": 48571,
    "userid": 20686,
    "_VC": 85352,
    "_OBJC": 64904,
    "ĠIndians": 30507,
    "Ġcontinua": 92084,
    "ĠÃ¡p": 104752,
    "ĠÐ´ÑĸÐ¹": 118824,
    "(AP": 54948,
    ".Cont": 2510,
    "(MPI": 77940,
    "nullptr": 42232,
    "Ġes": 1560,
    "ĠÑĥÐ½ÑĸÐ²ÐµÑĢÑģÐ¸ÑĤ": 113570,
    "Ġhott": 32622,
    "<|reserved_special_token_235|>": 128243,
    "Ġparasites": 79383,
    "(Buffer": 56674,
    "arga": 18405,
    "[df": 54305,
    "ollow": 1573,
    "\\widgets": 62899,
    "éļĲèĹı": 72794,
    "à¥įà¤§": 101782,
    "Ġhandc": 66145,
    "Ġboring": 28859,
    "ISION": 25189,
    "precio": 48874,
    "NG": 6269,
    "275": 14417,
    "Ġè³": 110124,
    "ĠSes": 64027,
    ".localtime": 92248,
    "Ã¼yoruz": 125600,
    "Ġtslib": 95361,
    "ersion": 1349,
    "\"čĊčĊ": 19103,
    "ixel": 6066,
    "ĠprÃ¡": 64267,
    "Convert": 12281,
    "ĠFever": 85001,
    "Ġprotest": 8835,
    "Ġimmature": 86525,
    "Ġtimeout": 9829,
    "éĻ°": 127122,
    ".sys": 35151,
    "ĠMillionen": 99535,
    "Ġkonce": 117839,
    "DV": 63071,
    "(place": 65689,
    "beiter": 74064,
    "Ġcredentials": 16792,
    "Ġtales": 37565,
    ".ac": 15761,
    "643": 22956,
    "Treatment": 99654,
    ")d": 66359,
    "-area": 30122,
    "ĠFOR": 4716,
    "Psy": 79284,
    "Scripts": 46042,
    "tr": 376,
    "ĉactive": 75870,
    "Ġæĸĩä»¶": 70694,
    "ìĹĲìĦľìĿĺ": 125904,
    "ĠÏī": 117774,
    ".G": 1246,
    ":CGRect": 27749,
    "åħ¬éĸĭ": 121298,
    "éĥŃ": 124397,
    "Persons": 92432,
    "ĠDoing": 44245,
    "ĠpháºŃn": 114021,
    "ĠXXX": 20572,
    "outing": 11149,
    "ĠVoter": 95124,
    "ĠRitual": 88888,
    "åĳ¼ãģ°": 127173,
    "Ġlibrarian": 95307,
    "ĠFed": 24526,
    "[id": 14839,
    "Cover": 31996,
    "_permission": 39071,
    "_POSITION": 34680,
    "\\(": 45392,
    "Ġinjuries": 15319,
    "Ġtaj": 116659,
    ".nextInt": 18006,
    "á»Ĩ": 115059,
    "functional": 50328,
    "sson": 31031,
    "ĠTInt": 72338,
    "ĠZem": 112142,
    "Ġimplicitly": 52873,
    "381": 19162,
    "StartElement": 80236,
    "ĠTC": 25610,
    "ĠComputers": 69549,
    "Ġhust": 59750,
    "Ġcondi": 87556,
    "Ġjaws": 82356,
    "ĠAJ": 34050,
    "Ġoct": 18998,
    "ĠBelmont": 96066,
    "ĠpÅĻeb": 125982,
    "ĉSend": 72852,
    "()['": 39715,
    "changed": 17805,
    "ionic": 21427,
    "-N": 11500,
    "*c": 40191,
    "Ġdaring": 59772,
    "-ln": 28792,
    "Ġeigentlich": 84980,
    "âĢĮ": 90464,
    "fieldname": 87198,
    "ĠLakes": 42679,
    "Ġgenerous": 28771,
    "Ġterse": 51637,
    "seud": 40512,
    ".xxx": 98102,
    "åī§": 110893,
    "Ġrapide": 76608,
    "-links": 47776,
    "Î½Î¹Î±": 113327,
    "Äįer": 110032,
    "Ġtiers": 64271,
    "Ð»": 3114,
    "ĠThose": 13266,
    "_TABLE": 16424,
    "Ġshaky": 84513,
    "ĠArtikel": 51301,
    "ĠÑĤÑĢÑĥÐ±": 113655,
    "Minnesota": 93465,
    "èµĦéĩĳ": 121668,
    "ĠLost": 28351,
    "_para": 49180,
    ">();čĊčĊ": 52722,
    "UTOR": 84421,
    "plug": 48574,
    "Ġmigraine": 92981,
    "ĠNewsp": 61103,
    "(shared": 66169,
    "ezier": 99716,
    "ä½łçļĦ": 110310,
    "æĿ¥": 37507,
    "Ġassortment": 56395,
    "_job": 20916,
    "ä¹¾": 119455,
    "çµ¡": 117139,
    "presence": 74519,
    "ycle": 5566,
    "éĢĲ": 114380,
    "ĠrequestData": 98364,
    "ä»İ": 46281,
    "_REL": 42307,
    ".diff": 41779,
    "AYS": 22838,
    "_RETURNTRANSFER": 72265,
    "machine": 33156,
    "(od": 93100,
    "Ġsistema": 29928,
    "íĮĢ": 107560,
    ".makeText": 16799,
    "ĠJoseph": 15466,
    "ĠCompatible": 67365,
    "Ġspac": 100108,
    "ĠÐ¤ÐµÐ´ÐµÑĢÐ°Ð»ÑĮ": 127957,
    "ĠPirates": 53505,
    "VB": 37974,
    "Ġsuchen": 67224,
    "ISO": 25141,
    "Ġdepend": 6904,
    "Continuous": 95880,
    "rror": 1298,
    "åį": 11239,
    "kal": 36641,
    ".enc": 55544,
    "_v": 2325,
    "Ġsia": 50989,
    "ĠBroadcast": 33065,
    "ĠWis": 16208,
    "/platform": 28394,
    "ĠØªÙĪ": 102124,
    "æŁ¥": 33976,
    "JavaScript": 30575,
    "Ġdz": 26802,
    "ĠEq": 34222,
    "ÏģÎ·": 101906,
    "ĠZusammen": 77704,
    "(Name": 21871,
    "<|reserved_special_token_138|>": 128146,
    "-Methods": 96590,
    ".WriteAll": 78240,
    "ĠartÄ±k": 108207,
    "Ãªu": 102069,
    "Ġreak": 119145,
    "ÏĦÎ¿ÏĤ": 102604,
    "ertime": 70841,
    "held": 28708,
    "Ġephem": 83234,
    "_Reg": 50484,
    "ÅĻenÃŃ": 102538,
    "Ġgreatness": 63556,
    "_fsm": 98169,
    "eneric": 3553,
    ",but": 100004,
    ".rar": 91476,
    "ĠTime": 4212,
    "?[": 61864,
    "mailer": 59503,
    "ĠShelf": 71446,
    "ĠØ§ÙĦØ·Ø¨ÙĬ": 122816,
    "ĠDocumentation": 45565,
    "-design": 47117,
    "ĠÃ¶l": 103795,
    "'elle": 80720,
    ".\"_": 70066,
    "Deep": 34564,
    "_Err": 94723,
    "Internal": 11830,
    "Ð°Ð·Ð°": 109424,
    "ĠEvropskÃ©": 127018,
    "Ġvetor": 76557,
    ".wait": 16693,
    "Ġwalker": 63624,
    "assi": 82643,
    "raq": 10916,
    "ĠìĥģíĻ©": 116492,
    "ĠìĹ°êµ¬": 106024,
    "ãģħ": 123232,
    ".car": 27988,
    "ĠLoki": 84855,
    "rega": 39976,
    "oÃłi": 101145,
    "ÐłÂµ": 124848,
    "athing": 44661,
    "Ġhaber": 59382,
    "ĠSpeak": 68301,
    "Ġsolitary": 58229,
    "Ġ{[%": 118749,
    "ĠTrails": 94841,
    "ÑģÑĤÐ¸Ñĩ": 111786,
    "Ġausge": 66178,
    "ĠpBuffer": 93500,
    "à«": 73319,
    "/scripts": 40472,
    "ĠëłĪë²¨": 106193,
    "MU": 60274,
    "Ġconvincing": 40661,
    "Ġbeginner": 50048,
    "ernen": 50172,
    "ĠConservation": 45435,
    "ĠCareers": 99455,
    "_EXTENSION": 38112,
    "ĠALTER": 76497,
    "Ġipc": 61204,
    "Ġbusinessman": 47378,
    "(grad": 83220,
    ".iterator": 30083,
    "íķĺëł¤": 122910,
    "\\)": 58858,
    "Ġauthorization": 24645,
    "Ġflipping": 65761,
    ".static": 27273,
    "phoneNumber": 59273,
    "_shader": 36585,
    "HttpRequest": 27459,
    "æŀ¶": 107145,
    "Ġmartin": 96016,
    "Ġsulph": 83778,
    "Ġìļ°ë¦¬ëĬĶ": 126889,
    "Ġfauc": 50886,
    "Ġpoz": 41821,
    "ĠnÃ¡m": 103516,
    ".sound": 48798,
    "Ġsei": 43237,
    "ĠÐ¿Ð¾ÑĤÑĢÐ°Ð¿": 127051,
    "@NoArgsConstructor": 68314,
    "ÐµÐ¶Ð´Ñĥ": 119617,
    "Ġsubscribe": 18447,
    "ĠLucas": 32103,
    "Ġliá»ģn": 119103,
    "ĠRetrofit": 58498,
    "æ¢¦": 113427,
    "Ġcompetence": 58266,
    "ĠÃ¼zerine": 104997,
    "abouts": 64399,
    "TF": 11042,
    "-redux": 20177,
    ".ObjectId": 45865,
    "uplicates": 41714,
    "ÑĢÐ¸": 31203,
    "itm": 73384,
    "Ġcreo": 89324,
    "Ġaccent": 30200,
    "Ġsistemi": 113725,
    "ĠÐ¾Ð´Ð½Ð¾Ð²": 125206,
    "à¸ĩà¸Ĥà¸Ńà¸ĩ": 118997,
    "disposed": 76629,
    "ÛĮÙĨÙĩ": 103029,
    "ĠgenÃ§": 109637,
    ".positions": 80613,
    "Development": 40519,
    "ĠMuham": 117970,
    "ĠChavez": 77341,
    "nodes": 20606,
    "+t": 42801,
    "ĠcÃ¢": 48924,
    "ĠAvec": 62293,
    "Ð¾Ð³Ð¾Ð´": 109970,
    "Ġhoras": 39992,
    "à¹Ģà¸ģà¸Ńà¸£": 120319,
    "licants": 62932,
    "Øº": 82878,
    "Ġwhen": 994,
    "ìĦ¸ìļĶ": 51402,
    "_INF": 66587,
    "ĠSmooth": 51825,
    "ÑĢÑĥÑĪ": 104711,
    "ĠØ±Ø³": 102382,
    "ĠÑģÐ¿ÑĸÐ»ÑĮ": 116695,
    "Ġinterfere": 40978,
    "atic": 780,
    "Ġstanov": 109974,
    "ÑĨÑĥÐ·": 114619,
    "ĠInsecta": 114843,
    "zz": 10616,
    "ÑĢÐµÐ´Ð¸ÑĤ": 109355,
    "_defined": 53970,
    "(redis": 98776,
    "_tmp": 16516,
    "ĠARGS": 85249,
    "600": 5067,
    "ĠIdentity": 27638,
    "/Button": 47296,
    "Ġad": 1008,
    "etur": 32941,
    "ĉtab": 59249,
    "ĠBerger": 69725,
    "ĠÂ§Â§": 65431,
    "(android": 46732,
    ".bootstrapcdn": 33493,
    ".unsubscribe": 57499,
    "mittel": 92284,
    "zx": 67800,
    "/cal": 92834,
    "_FREQUENCY": 94274,
    "ĠMartin": 11826,
    "Ġforecast": 18057,
    "Ġmakers": 29414,
    "Ġstacks": 41050,
    "OnInit": 73884,
    "\\xb": 48859,
    "Ġrestrictions": 17294,
    "tection": 40241,
    "ĠOsama": 83342,
    "Ġunp": 22355,
    "ĠÐ´ÑĥÑħ": 107863,
    "ĠforCell": 73622,
    "à¸Ħà¸§": 100877,
    "à¸¸à¸¡à¸Ĭà¸Ļ": 127931,
    "ĠÑĤÐ¾Ð»ÑĮÐºÐ¾": 74726,
    "ï¼Įæ¯Ķ": 126900,
    "ĠØ§ÙĦØ«Ø§ÙĨÙĬ": 113717,
    "ÙĥØ²": 107775,
    ".Default": 13578,
    "ernal": 3051,
    "äº®": 108002,
    "Ignore": 12780,
    "reece": 90131,
    "start": 2527,
    "ĠCorporation": 13332,
    "ĠPAD": 62854,
    "Ġscattering": 72916,
    "allow": 7331,
    ".mousePosition": 82766,
    "<|reserved_special_token_187|>": 128195,
    "_EDIT": 26162,
    "ĠWV": 75525,
    "ĠMultip": 59812,
    "ÑĶÐ½": 104942,
    "_apps": 70999,
    "ĠBrooks": 39119,
    "ĠRole": 15766,
    "Ġaffirmed": 74549,
    "Ġbunch": 15860,
    "Ġunlink": 48579,
    "Ġpearl": 70723,
    "Ġkd": 69250,
    "my": 2465,
    "ħ§": 92871,
    "ĠToby": 79479,
    "ĠDav": 5460,
    "directories": 76801,
    "edish": 27040,
    "ĠMV": 43371,
    "Ġcombinations": 28559,
    "Ġstaveb": 121563,
    "ĠÎµÎ½": 103146,
    "_EL": 63383,
    "Ġmaple": 55480,
    "Deadline": 84693,
    "Ġobstruct": 54292,
    "Ġdood": 88808,
    "ĠØ¢ÙĨ": 100490,
    "Ġ(;": 31475,
    "lost": 55437,
    "ĠDPS": 59583,
    "à¸¸à¸£à¸ģ": 112331,
    "nÃ½ch": 101633,
    "Ġlur": 47747,
    ":::::::::::": 110819,
    "Ã©rt": 87453,
    "_RESP": 30080,
    "Ġtrio": 35062,
    ".eye": 73840,
    "Ġpena": 95557,
    "Ġvp": 35923,
    "ĠRGB": 21653,
    "uts": 6256,
    "ĠAustralian": 13673,
    "ĠØ¨Ø±Ú¯Ø²": 127094,
    "Okay": 33413,
    "BaseUrl": 72687,
    "(car": 43178,
    "Ġprakt": 74555,
    ".imp": 81554,
    "é¬": 106890,
    "ĠvÃłng": 111014,
    "ĠíĬ¸": 107534,
    "locations": 32409,
    "Ġà¤ªà¤¢": 111354,
    "ĠREQUIRE": 29072,
    "ĠSouls": 58770,
    "jejer": 58032,
    "ĠToDo": 68153,
    "à¸´à¸Ļà¸Ķ": 120826,
    "ĠÐ´Ð¾ÑģÑĤÐ¸": 111226,
    "_mass": 37814,
    "ister": 1601,
    "Als": 77968,
    "ëī´": 109687,
    "ãĥ¼ãĤº": 106240,
    "Ġbail": 25487,
    "-sk": 46407,
    "ï¿½ï¿½ï¿½ï¿½": 24378,
    ".rep": 69325,
    "_membership": 85735,
    "luet": 57416,
    "ĠEngagement": 60463,
    "Fresh": 56753,
    "swagen": 44677,
    "ĠBeirut": 95411,
    "ĠalÄ±r": 112704,
    "Ġoperand": 28312,
    "Ġtransient": 41658,
    "ĠĠĠĠĠĠĠĠĠĠĠĠĠ": 1078,
    "ĠResourceBundle": 96461,
    "Ġfirearms": 32653,
    "Td": 97076,
    "ĠPublishing": 37933,
    "Ġparch": 66302,
    "Ġmaximizing": 88278,
    "ĠÑģÐ¿ÐµÑĨÐ¸": 104073,
    "ÙĪÛĮÙĨ": 109021,
    "à¥Īà¤¸à¤²": 117595,
    "Ġfooter": 24048,
    "ĠØ¯Ø±Ø®ÙĪØ§Ø³Øª": 124202,
    "-rated": 55985,
    "ĠØªØ±Ø¬Ùħ": 113583,
    "ĠInfantry": 65656,
    "Ġ,Ċ": 13801,
    "mland": 86794,
    "ĠFur": 50940,
    "Ð³Ðµ": 114289,
    "Ġloud": 17813,
    "Ġmáº¡ng": 107303,
    "ĉpart": 73972,
    "ĠBureau": 22555,
    "ĠÑĢÑĸÐ²Ð½Ñı": 118252,
    "Ġcuffs": 90569,
    "([-": 42297,
    ".reader": 35860,
    "ĠGarrison": 99586,
    "post": 2252,
    "ĉemit": 82662,
    "Ġfrustrated": 33630,
    "ĠÑĥÐº": 110982,
    "ĠfChain": 96283,
    "PÅĻÃŃ": 117679,
    ".null": 60366,
    "Ġnods": 83759,
    "ĠÎºÎ±Î¸ÏİÏĤ": 116877,
    "Ġdiscrepancy": 79105,
    "TeX": 56063,
    "isecond": 46966,
    "ĠÐ²Ð¾ÑĢ": 117535,
    "å±Ĭ": 109948,
    "_NODE": 19769,
    "Measured": 86455,
    "pletion": 14723,
    "iá»ĩt": 100720,
    "Ø§ØŃØª": 110057,
    "æĺĵ": 87844,
    "Ġdisasters": 51751,
    "ĠLens": 43771,
    "ĠBearings": 65416,
    "âĢľIn": 46233,
    ".Conn": 51522,
    "/chat": 72435,
    "-react": 31696,
    "Ð½Ð¸Ð¸": 104833,
    "Ġbeat": 9567,
    "Ãłng": 52649,
    "ĠDoesn": 49932,
    "ë³´ê³ł": 115202,
    "Ġoffice": 5274,
    "æ°ı": 105514,
    "Ġlabour": 23791,
    "Ġwar": 4208,
    "orderid": 98661,
    "ĠWenger": 78027,
    "ĠNO": 5782,
    "ĠSponsor": 48661,
    "/client": 26141,
    "Ġotra": 46495,
    "GAME": 48675,
    "elmet": 75872,
    "ÑĦÑĢÐ°": 121293,
    "104": 6849,
    ".toUpperCase": 33404,
    ".getB": 73690,
    "_ACTIVITY": 43545,
    "ĠÑħÐ¾Ñĩ": 104234,
    "Ġ$?": 51161,
    "ĠBool": 12894,
    "ĠÃłs": 53629,
    "Ġexam": 7151,
    "ĠDeniz": 118061,
    ",âĢľ": 102305,
    "Campo": 61753,
    "Ġfix": 5155,
    "portal": 39053,
    "thew": 16142,
    "à¸§à¸Ķ": 110302,
    "ĠBucc": 79347,
    "ĠLabs": 41740,
    "Ġtoured": 91713,
    "ĠØ§Ú©ØªØ¨Ø±": 127043,
    "ĠpÅĻÃŃst": 127629,
    "(weights": 63701,
    ".IndexOf": 33870,
    ":D": 64943,
    "/gin": 79724,
    "Ġencoding": 11418,
    "ĠÐ½Ð¾Ð²Ð¾Ð³Ð¾": 117453,
    "include": 1012,
    "uously": 66735,
    "ÙģØ§Ø¹": 116349,
    ":variables": 57305,
    "_LIBRARY": 55210,
    "erving": 20073,
    "ĠMurray": 28253,
    "ĠĠĠĠĠĠĠĠĠĠĠĠĠĠĠĠĠĠĠĠĠĠĠĠĠĠĠĠĠĠĠĠĠĠĠĠĠĠĠĠĠĠĠĠĠĠĠĠĠĠ": 22232,
    "ĠÐ¿ÑĢÐ¸Ð´": 107566,
    "Ð¾Ð»Ñı": 96485,
    "à¸¥à¸Ńà¸ĩ": 112751,
    "Ġfluor": 54736,
    "_coords": 33676,
    "_critical": 78602,
    "Datos": 41366,
    "Ġquanh": 114708,
    "à¹Īà¸Ļà¹Ģà¸ģà¸¡": 126090,
    "Element": 1726,
    "anding": 26673,
    "oi": 6870,
    "Ġbor": 32732,
    "complex": 24126,
    "à·": 49849,
    "$ret": 54427,
    "ĠLGBTQ": 51042,
    "ĠHDC": 97417,
    "575": 21228,
    "ĠChronicles": 66416,
    "fi": 10188,
    "Ġseule": 86806,
    "ĠÎ¼ÏĢÎ¿ÏģÎµÎ¯": 112723,
    "ĠCastro": 47624,
    "Java": 15391,
    "ĠKaw": 51616,
    "ĠSpike": 61352,
    "ĠcÃ¡ch": 101359,
    "ĠIMPLEMENT": 81711,
    "opro": 47026,
    "ĠOPTION": 30995,
    "ĠCZ": 70875,
    "igrate": 35579,
    "ÏħÎ³": 126517,
    "Ġarchit": 117729,
    "Exports": 88094,
    "Ġgastrointestinal": 80311,
    "ĠâĢİ#": 103428,
    "ĵĺ": 68995,
    "ĠçĹ": 117917,
    "_USE": 23092,
    "ĠRacing": 33382,
    "Ġmatcher": 37152,
    "Projects": 31058,
    "Ġlends": 79018,
    "regulated": 81722,
    "Ġãħĩãħĩ": 102119,
    "ĠRooms": 48403,
    "-an": 19415,
    "totals": 85946,
    "ä¾ĭå¦Ĥ": 78657,
    "Reject": 79513,
    "Ġpatrols": 88142,
    "Ġresidents": 11062,
    "ĠShir": 50356,
    "/target": 89968,
    "Ġeclipse": 56528,
    "Ġlanding": 20948,
    "/per": 45085,
    "ĠMalaysian": 66531,
    "$ĊĊ": 67526,
    "[rand": 69166,
    "Ġcapacit": 99758,
    ":l": 89497,
    "ementia": 46744,
    "ickÃ©m": 116972,
    "Ð»Ð¸Ñı": 107278,
    "iktig": 97533,
    "ama": 3105,
    "ĠNazi": 32527,
    ".Modules": 72792,
    "Ġsrd": 118484,
    "ĠÐ±ÑĥÐ´ÑĤÐ¾": 126355,
    "Ä¾": 125927,
    "Ġmerger": 47112,
    "Ġrepair": 13023,
    "sty": 79855,
    ".split": 5402,
    "Ġrá»«ng": 123376,
    "Ġplastic": 12466,
    "Ġsmallest": 25655,
    "bout": 74001,
    "='-": 95093,
    "ĠPsych": 17680,
    ".format": 8180,
    "Ġldc": 33106,
    "(words": 37389,
    "ĠTS": 23822,
    "Ġhelping": 10695,
    "Ġost": 37996,
    ":message": 92573,
    "({ĊĊ": 52732,
    "OLDER": 25787,
    "Ġscop": 48621,
    "ĠØºØ°": 115184,
    "though": 4636,
    ":]:Ċ": 76881,
    "-hit": 70201,
    "PLIT": 52697,
    "ĠMuss": 90814,
    "transactions": 42944,
    "(home": 64294,
    "UnitOfWork": 74363,
    "Ġê½": 114417,
    "-story": 46199,
    "logradouro": 68940,
    "éģŃ": 114876,
    "å§Ķåĵ¡": 114373,
    "Ġbilim": 111775,
    "Ġseventh": 31487,
    "Ġspectacle": 57891,
    "Ġevangel": 39153,
    "RSA": 74664,
    "ÏģÎ¹Î¿ÏĤ": 109927,
    "filename": 8570,
    "ĠNhÃ¢n": 114278,
    "ĠResident": 60776,
    "ĠadÄ±m": 111122,
    "ĠAbout": 10180,
    "Ġdefiance": 90883,
    "xfc": 41528,
    "eson": 62017,
    "Rus": 127527,
    "licensed": 72811,
    "ĠKanun": 121234,
    "ĠmRecyclerView": 92623,
    "',...Ċ": 57368,
    "ë³´": 42771,
    "ëĤĺëĬĶ": 110955,
    "rompt": 15091,
    "Model": 1747,
    "Ġmostly": 10213,
    "//----------------": 62783,
    "_exit": 17305,
    ".Cursor": 31029,
    "Ø§ÙģÙĬ": 118727,
    "íĭ": 101457,
    "dÄĽl": 101759,
    "Ġcancers": 51423,
    "ĠawakeFromNib": 76049,
    ".Exception": 26940,
    "ecera": 91327,
    "ERC": 28534,
    "Ġposting": 17437,
    ">Note": 98829,
    ".getLongitude": 98470,
    "ovalo": 113135,
    "95": 2721,
    "Ġimposition": 94879,
    "ĠiÃ§i": 122822,
    "ĠÎĺÎµÏĥÏĥÎ±": 127580,
    "-transition": 55601,
    "Ġhistorians": 51801,
    "ê´": 117484,
    "Ġaktivit": 127868,
    "Ġsucces": 50551,
    "-ste": 97426,
    "ursive": 16921,
    "uffling": 80790,
    "á¼": 101814,
    "Ġjest": 13599,
    "Ġeuler": 92070,
    "going": 9738,
    "fib": 76426,
    "ç¹": 103721,
    "ĉlp": 93506,
    "Ġdistributions": 43785,
    "@testable": 86861,
    "ocial": 2772,
    "ĠGuantanamo": 99400,
    "ulers": 27898,
    "ĠSink": 57551,
    "ĠtoJson": 66357,
    "Ġê·¸ëŁ°": 108542,
    "ĠÙ¾ÛĮØ´ÙĨÙĩØ§Ø¯": 126904,
    "ĠaltÄ±": 118161,
    "ĠÐ¸Ð·Ð´ÐµÐ»": 122451,
    "_TOO": 75655,
    "à¸Ľà¸£à¸°à¹Ģà¸Ĺà¸¨": 105208,
    "ĠBermuda": 91366,
    "OWER": 20491,
    "Successful": 37474,
    ".setting": 63887,
    "\\_": 76838,
    "rias": 48931,
    "(SK": 73604,
    "PTR": 48705,
    "_TR": 6544,
    "ĠÐļÐ¾Ð½": 104594,
    "250": 5154,
    "Console": 12653,
    "à¥ģà¤": 100401,
    "ĠPJ": 66080,
    "Å¡etÅĻenÃŃ": 127292,
    "Ġaid": 12576,
    "Ġdrawback": 88620,
    "Ġà¤¯": 100393,
    "'action": 91655,
    "ĠDum": 65082,
    "Ġà¥¤ĊĊ": 127140,
    "ĠÐºÐ¾Ð½Ñģ": 109253,
    "æĸ°èģŀ": 116491,
    "à¹īà¸ĩà¸²à¸Ļ": 113935,
    "_gold": 55796,
    "ferences": 5006,
    "ĠIdaho": 40687,
    "ĉsource": 48518,
    "_Selection": 89535,
    "tmpl": 72459,
    "ÑĥÑģÑĤ": 61613,
    "(Collection": 56041,
    "Ð°Ð½Ñģ": 104296,
    "ĠÐĹÐ°Ñħ": 125091,
    "ĠMsgBox": 52666,
    "Abr": 90528,
    "JSGlobal": 78581,
    ";i": 4801,
    "routing": 74420,
    "_PASS": 35451,
    "ÑĢÐ¾Ð²": 24803,
    "Categoria": 59288,
    "ĉData": 42027,
    "ĠTasks": 47571,
    "theory": 94304,
    "Ð¸ÑĩÐ½Ð¾": 122564,
    "Ġfinance": 17452,
    "Ġhl": 50686,
    "ĉopt": 65938,
    "Ġcontar": 89805,
    "Ġrew": 79722,
    "Ġcrea": 81870,
    "vertices": 13328,
    "Ġrefs": 44243,
    "asty": 15329,
    "Exercise": 53809,
    "China": 23078,
    "Ġutilities": 30519,
    "ĠcJSON": 71680,
    "Ġoranges": 85138,
    "Judge": 61356,
    "Ġadapted": 30464,
    "Ġfaculty": 22291,
    ".getComponent": 62957,
    "ĠProdukt": 70442,
    "à¸±à¸Ļ": 67356,
    "ĠØ§ÙĦÙĨÙĪ": 127498,
    "ĠPUS": 126670,
    "La": 8921,
    "ĠSolve": 64384,
    "Ġcanonical": 43553,
    "Ġgirls": 7724,
    "Ġsoftmax": 77469,
    "DeviceInfo": 95555,
    "ĠÙģÙĪÙĦ": 115148,
    "ĠÎ±ÏħÏĦÎ¬": 127604,
    "ĠãĢĢãĢĢãĢĢãĢĢãĢĢãĢĢ": 108673,
    "ĠAndy": 25871,
    "Ġ": 220,
    "ĠBeef": 64225,
    ".icons": 79974,
    "ĠMohammad": 65552,
    "ÐºÐ¾ÑģÑĤÐ¸": 113910,
    "ging": 3252,
    "ĠìĿ´ë²¤íĬ¸": 117266,
    "imer": 3212,
    "elerle": 122244,
    "Ġæ½": 125705,
    "ĠãĢĢãĢĢãĢĢãĢĢãĢĢãĢĢãĢĢãĢĢãĢĢ": 117256,
    "ĠJersey": 16228,
    "ĠØ§Ø¬": 101940,
    ".pub": 48873,
    "(CH": 84034,
    "ĠØªÙģØ³": 121152,
    "'{": 25097,
    ".forward": 27613,
    "onesia": 57772,
    "çİ°ä»£": 120589,
    "ĠÑģÐ¾Ð½": 113451,
    "ĉSDL": 39933,
    "ĠMr": 4491,
    "Ġrubble": 74535,
    "Ġtribute": 35491,
    "(act": 60578,
    "ç©ºéĹ´": 118582,
    "ĠPrairie": 72049,
    "_arr": 11459,
    "ensemble": 49575,
    "ëªħìĿĦ": 126546,
    "Before": 10438,
    "Ġsalary": 16498,
    "ĠÐ²ÐºÐ»ÑİÑĩÐ°": 108831,
    "(CharSequence": 73746,
    "(ins": 57437,
    "ĠÐĴÐ¾": 111260,
    "Ġbe": 387,
    "ÙĤÙħ": 106389,
    "startswith": 70425,
    "Ġflipped": 47180,
    "Ġhlub": 124362,
    "Ġannonces": 76839,
    "-Speed": 95577,
    "verb": 23129,
    "ĉcfg": 51386,
    "Ġ?>Ċ": 3955,
    "Î®Î½": 116757,
    "Ġmuito": 34850,
    "Ub": 50668,
    "(days": 43695,
    "-vars": 81733,
    "97": 3534,
    "toHave": 25751,
    "Expl": 45053,
    "anship": 35402,
    "ĠVoll": 97482,
    "sources": 40751,
    "ï½ŀï½ŀ": 118647,
    ".sharedInstance": 65369,
    "_uc": 69987,
    ".GPIO": 68289,
    "C": 34,
    "pressions": 40973,
    "ĠPor": 20388,
    "(unit": 25116,
    "Sketch": 76388,
    "æĹ©": 103856,
    "ĠÐ±ÑĭÑģÑĤÑĢÐ¾": 110831,
    "News": 14710,
    ".findAll": 25582,
    "InternalServerError": 57084,
    "ĠCiv": 80235,
    "Ð¸Ð½Ð¸": 102799,
    "Ġadet": 113441,
    "products": 10354,
    "ĠLIABLE": 17842,
    "ĠSharing": 57135,
    "Period": 24684,
    "Ġtemas": 85006,
    "Ġspirituality": 75456,
    "ĠMiss": 9083,
    "/resources": 40000,
    "Ġ'..',": 89642,
    "qc": 60933,
    "ĠInterruptedException": 36720,
    "Ġwalk": 4321,
    "êµ´": 108214,
    "ĠÐļÐ¸ÑĹÐ²": 112231,
    ".activation": 85923,
    "ÏĢÏĦÏħ": 119300,
    "à¹ĥà¸Ĭ": 101586,
    "ĉĉĠĠĠĠĉ": 57646,
    "Ġ{:?}\",": 73064,
    "åħ±": 55999,
    "ĠÐ²Ð¾": 100797,
    "icha": 62487,
    "ĠÑģÐµÑĢÐ¿Ð½Ñı": 120705,
    "xo": 41922,
    "Ġconstr": 19477,
    "Ùī": 56157,
    "Ġencaps": 43669,
    "Ġexpressed": 13605,
    "Ġhaar": 42225,
    "<|reserved_special_token_242|>": 128250,
    "ĠMir": 14603,
    "Ġ[]čĊ": 24022,
    "Ġinterpreted": 33398,
    "lsa": 78783,
    "Ġexaminer": 84732,
    "reet": 3829,
    "ugins": 6983,
    "åĩ½æķ°": 33904,
    "ĠvÃ¡l": 87080,
    "Ġstealing": 39098,
    "Ġthá»¥": 114789,
    "_disable": 34942,
    "_modified": 38849,
    "_regression": 92244,
    "ĠSpring": 12531,
    "ĠláºŃp": 103190,
    "Ġè¯": 102227,
    "ĠÐ¾Ð½": 99845,
    "ĠÏĢÎŃ": 126011,
    "innerHTML": 15982,
    "Â°Ð¡": 125988,
    "ÐµÑĨÑĮ": 104177,
    "Î¥Î¡": 120317,
    "LETED": 57586,
    "Ġinflatable": 97307,
    "Ġ:+:": 16329,
    ".\").": 99501,
    "Ġquasi": 48844,
    "GetName": 50503,
    "èĥİ": 118480,
    "Ġshine": 33505,
    "debit": 90480,
    "/****************************************************************************": 23381,
    "iled": 2230,
    ".graphics": 14979,
    "Ġintellectual": 20207,
    "/\\": 35419,
    "ĠAppCompatActivity": 25096,
    "ĠRaise": 43646,
    "091": 24443,
    ".rules": 44751,
    "itness": 8251,
    "ĠhÃ¼k": 105735,
    "ĠuserList": 65474,
    "lantÄ±": 104061,
    "istributor": 79488,
    "ĠØ¬Ø§Ùħ": 103922,
    "Scaled": 95301,
    ".phone": 25869,
    "ĉvertices": 89109,
    "ĠLAS": 65231,
    "EXAMPLE": 96975,
    "send": 6820,
    "loggedIn": 81249,
    "-based": 6108,
    "ĠÑĸÐ½ÑĦÐ¾ÑĢÐ¼Ð°ÑĨÑĸÑĹ": 117866,
    "IRONMENT": 60939,
    "Ġweaknesses": 44667,
    "Ġyahoo": 65628,
    "Ġcol": 1400,
    ".SceneManagement": 65521,
    "ISTA": 96965,
    "IDENT": 20398,
    "detect": 62343,
    "Those": 23025,
    "ozici": 115482,
    "prÃ¡v": 103560,
    "Ġbucks": 48434,
    "ĠÑģÐºÐ¾Ð»ÑĮÐºÐ¾": 123005,
    "stringValue": 79983,
    "ĠNovember": 6841,
    ".par": 34377,
    "ĠgetNode": 82898,
    "ĠJackets": 86664,
    "ĠCHRIST": 84665,
    "OD": 2114,
    ".projects": 60456,
    "oluciÃ³n": 78176,
    "ĠTodd": 30534,
    "Ġheavily": 17345,
    ".mc": 62544,
    "ĠHak": 72398,
    "praak": 80186,
    "Ġpraises": 87178,
    "BERS": 45216,
    "atre": 16091,
    "quito": 42196,
    "ç»ıéªĮ": 117088,
    "_hop": 99293,
    "ĠConstraint": 45364,
    "ĠLucy": 45170,
    "Ġanatom": 75893,
    "Ġculprit": 75283,
    "hen": 12301,
    "ÑĢÐ°Ð¼": 38808,
    "Ġorch": 41245,
    "ĠToolStrip": 62691,
    "variable": 10014,
    "ĠFUCK": 76121,
    "Ġà¸ķà¸³": 114530,
    "å°ĳãģĹ": 114715,
    ".Hidden": 65114,
    "Å¡Å¡ÃŃ": 106448,
    "78": 2495,
    "ĠdomÃ¡c": 111849,
    "ĠBaptist": 43748,
    "Ġgard": 22641,
    "Ġreminded": 31256,
    "Ġsnug": 86701,
    "Ġsdf": 51257,
    ".routes": 40406,
    "à¸²à¸Ł": 119137,
    "ÙıØ±": 117687,
    "Ġposts": 8158,
    "ĠTri": 12639,
    "FileDialog": 27694,
    "Ġë°ĶëŀĮ": 124742,
    "modern": 50889,
    "Ġbyla": 102035,
    "ĠRick": 23194,
    "ĠÐºÐ¾ÑĤÐ¾ÑĢÑĭÐ¹": 98851,
    "Ð¼ÑĸÐ½Ñĥ": 126103,
    "ĠCumhuriyeti": 121215,
    "Æ°á»£t": 106107,
    "Deleted": 27130,
    "ĠStack": 14619,
    "kHz": 62856,
    "_FACTORY": 72252,
    "Ġadvoc": 12516,
    "Ġexe": 48293,
    "ĠÎľÏĢ": 106100,
    "èĢĥè¯ķ": 118660,
    "os": 437,
    "æĺ¥": 104149,
    "ĠsearchText": 73608,
    "(',')Ċ": 62365,
    "(pow": 73607,
    "razier": 92147,
    "Ġtháº»": 117448,
    "itorio": 97086,
    "\"))))Ċ": 79078,
    "-vous": 45325,
    "ĠSHIPPING": 88418,
    "Ġparadigm": 49340,
    "_IGNORE": 51074,
    "Ġurllib": 25057,
    "ĠãĤµ": 106773,
    "\"]=>": 84505,
    ".worker": 68793,
    "ĉJPanel": 91325,
    "ĠFORE": 45023,
    "Ġglfw": 51929,
    "Term": 17695,
    "246": 14205,
    "-years": 57188,
    ".percent": 63377,
    "Ph": 3438,
    "ĠLinden": 100165,
    "ĠLucia": 80274,
    "ĠÐ¿ÑĢÐ¾Ñĩ": 114455,
    "(instr": 80023,
    "(chan": 36290,
    "<|reserved_special_token_196|>": 128204,
    "ĠHÃłng": 125033,
    "ÙĪØ°": 114096,
    "ĠRegards": 92179,
    "orrow": 7924,
    "Ġsuperf": 43117,
    "ĠSaf": 12867,
    "_Ass": 63322,
    "íĶ": 100593,
    "Ġlangu": 83400,
    "-guard": 94081,
    "riors": 21864,
    "Ġrá»§i": 125435,
    "idan": 56304,
    "jon": 35265,
    "Xi": 71730,
    "timeout": 14482,
    "ĠØ®Ø§Ú©": 118533,
    "approx": 49153,
    "ĠÐ²Ð´ÑĢÑĥÐ³": 123838,
    "æ¼": 78256,
    "ĠWAV": 89430,
    ".Driver": 42868,
    "Ġpowdered": 83583,
    "_nama": 87636,
    "ĠVotes": 66393,
    "iltro": 47220,
    ".spotify": 77553,
    "Chess": 89342,
    "-elected": 96805,
    "castle": 36208,
    ".album": 63288,
    "TTY": 56644,
    "_um": 73163,
    "nameof": 69542,
    "à¸ľ": 85894,
    "ÏĦÎ¹Î¿": 111091,
    "733": 24865,
    "[S": 43574,
    ".type": 4957,
    "ĠScale": 25635,
    "Ġmindful": 63442,
    "addElement": 77393,
    "Ġpall": 67597,
    "Ø§Ø®": 100687,
    "Ġclums": 78057,
    "Ġtemporarily": 28191,
    "Äįen": 119092,
    "ĠRepresent": 22717,
    "Ġgases": 45612,
    "(conf": 30979,
    "çĽ®": 30832,
    "ÙĬØ¬": 110933,
    "ULK": 69798,
    "Ġgew": 23355,
    "Cluster": 29778,
    "-East": 94764,
    "Ġpreval": 26413,
    "âĢ¦âĢ¦âĢ¦âĢ¦âĢ¦âĢ¦âĢ¦âĢ¦": 78366,
    "çĸ²": 127814,
    "ĠÄĳáº¥t": 103033,
    "ĠÑĩÐµÐ³Ð¾": 109691,
    "Ġbá»ĳn": 125780,
    "icolor": 74909,
    "à¸¸à¸¡à¸łà¸²à¸ŀ": 120491,
    "à¸Īà¸²à¸ģà¸ģà¸²à¸£": 121263,
    "Ġzad": 71748,
    "Ġelbow": 46811,
    "ÑĥÐ»ÑıÑĢ": 106178,
    "ĠÐ¿ÑĢÐ¸Ð³Ð¾ÑĤÐ¾Ð²Ð¸ÑĤÑĮ": 125863,
    ".Ap": 23676,
    "Ġcb": 10059,
    "åĹ": 106347,
    "ĠHERE": 19804,
    "ÐµÑĢÐ°Ð¿": 109470,
    "æ¡ĥ": 115895,
    "ĠWTO": 100233,
    "Ġhandful": 23810,
    "ĠëĪ": 102526,
    "pper": 7067,
    "Ak": 56902,
    "à¸Ĺà¸²à¸Ļ": 119967,
    "ØºÙĬØ±Ø©": 118980,
    "Ġdestroyer": 96289,
    "_ignore": 59593,
    "yÃ¼k": 89655,
    "Ġgraphs": 40099,
    "ErrorException": 92119,
    "ZY": 81601,
    "Ġevent": 1567,
    "Leave": 22586,
    "sÃ¼z": 126290,
    "ĠVR": 19718,
    "Ġbrat": 117845,
    "ĠBout": 64203,
    ".bindingNavigator": 46705,
    "Traditional": 85782,
    "ĠAsset": 23429,
    "Ġkijken": 79057,
    "adero": 74330,
    "ĠÙģØ±ÙħÙĪØ¯": 119501,
    "ĠÐ½Ð°Ð´": 101258,
    "-ID": 54465,
    "licts": 57545,
    "ĠnynÃŃ": 114220,
    "Ġíķ©": 106977,
    "Ġreduce": 8108,
    "prices": 59869,
    "antt": 89788,
    ".squareup": 68026,
    "jpeg": 32021,
    "ĠCutter": 90878,
    "Ġà¤Ĺà¤¯": 101159,
    "ĠPANEL": 81124,
    "Soon": 67196,
    "ÐµÐºÑĤÐ¾ÑĢÐ°": 123722,
    "ë§ŀ": 125682,
    "ìľ¼ë©°": 104429,
    "Ġong": 127721,
    "ivia": 21475,
    "schedule": 29730,
    "ĠyukarÄ±": 116065,
    "GNU": 37323,
    "470": 17711,
    "(c": 1361,
    "zew": 96304,
    "âĢĶfrom": 88958,
    "æĹ": 6079,
    "ĠÃºdaj": 111045,
    "ĠzemÄĽdÄĽl": 123535,
    "Ġdipping": 86921,
    "613": 22922,
    "liste": 65746,
    "Ìģt": 122095,
    "á»ĭ": 37028,
    "Ġcute": 19369,
    "ĠNg": 17030,
    "\\Validation": 70550,
    "æľĢçµĤ": 124042,
    "ĠÑģÐ¼ÐµÑĪ": 125687,
    "NibName": 61958,
    "ĠnÃ¡kup": 123639,
    "Ġtreatments": 22972,
    "ĠICE": 41663,
    "ĠØ³Ø±ÙĪ": 122465,
    "()).": 6139,
    "ÑıÑĩÐ¸": 125842,
    "Ġaccept": 4287,
    "&_": 86147,
    "à¥įà¤°à¤§": 113438,
    "ĉnum": 23239,
    "Ġcoward": 66275,
    ".tc": 79690,
    "Ġdepart": 11776,
    "-sensitive": 57767,
    "(dllexport": 92135,
    "Ġimpres": 77998,
    "è®ºåĿĽ": 123408,
    "ÑģÐ¿ÑĸÐ»ÑĮ": 110373,
    "essler": 78049,
    "ĉGPIO": 47998,
    "enez": 21198,
    "undef": 16527,
    "à¸£à¸²à¸Ĭ": 103695,
    "Ġproprietor": 93023,
    "ĠstÅĻÃŃ": 116139,
    "Ġyyyy": 59089,
    "=findViewById": 85991,
    "Ġethos": 85339,
    "es": 288,
    "(list": 7455,
    "ĠThailand": 30567,
    "ĠrÃµ": 106003,
    "cade": 33896,
    "Ġelection": 6355,
    "Ġwithheld": 77103,
    "ĠçŃ": 105697,
    "ĠÙħØ´Ø§Ø±Ú©Øª": 112782,
    "å¸½": 127779,
    "Symfony": 46274,
    "(^": 34910,
    ".vendor": 73495,
    "ĠÎ¼ÎŃÏĥÎ±": 118102,
    "emodel": 96748,
    "Ã¼ny": 117108,
    "Ġnau": 93562,
    ")))Ċ": 6054,
    "ĠGetName": 93888,
    "_len": 6171,
    "ĠThrones": 47494,
    "+len": 89482,
    "Inventory": 23120,
    "bery": 31304,
    "NÃį": 105481,
    "Ġchaos": 28013,
    "formulario": 94593,
    "ĠÚ©Ø±ÛĮ": 126193,
    ".Stop": 31313,
    "(ii": 31834,
    "LEN": 26385,
    "hec": 42750,
    "Ġchoke": 65136,
    "Ġflock": 49816,
    "Ġyears": 1667,
    "ĠÎºÎ¿Ïģ": 122593,
    "ĠëĪĪ": 105195,
    "<|reserved_special_token_205|>": 128213,
    "Ġpopular": 5526,
    "Ġfeet": 7693,
    "oxel": 53491,
    "_SLOT": 54147,
    "Af": 55439,
    "Ġ*/čĊčĊ": 15816,
    "<Comment": 82980,
    "insic": 28692,
    "ĠØ¬Ø¯ÙĬØ¯": 114874,
    "Ġspecialists": 35416,
    "ĠÄįlÃ¡nky": 121108,
    ".card": 25311,
    "ãĢĤãĢįĊĊ": 102175,
    "bol": 31146,
    ".putText": 92768,
    "Ġmodifications": 29882,
    ".Redis": 83498,
    "snapshot": 36601,
    "Ġsourcing": 74281,
    "Ġ?>": 3452,
    "ÑĥÑİÑīÐ¸Ðµ": 110915,
    "ĠSuccessful": 46626,
    "QUESTION": 53528,
    "added": 17249,
    "agli": 80156,
    "::~": 14586,
    "ä¹ĭåĲİ": 108957,
    "æ¬¡": 33671,
    "ìĬµ": 36630,
    "uestra": 76464,
    "/work": 36162,
    "à¸Łà¸Ńà¸£": 125187,
    "MouseButton": 77644,
    "ĠRutgers": 72091,
    "Shoot": 86295,
    "pop": 8539,
    "pp": 604,
    "ĠMandal": 89979,
    "/'.$": 19547,
    "Ġneckline": 92661,
    "Ġofrece": 89539,
    "âĢ²": 39615,
    "<|reserved_special_token_50|>": 128058,
    "ÑĥÐ»": 104406,
    "USH": 20088,
    "Ġ\"\"\".": 84324,
    "Ġstoi": 88444,
    "MainThread": 83312,
    "-effective": 53421,
    "upe": 86577,
    "Ð»ÐµÐ½Ð¸Ðµ": 56892,
    "Ġenjoys": 32838,
    "ĠHÃ¬nh": 121310,
    "Ġerratic": 95675,
    "Ġearns": 64859,
    "(format": 21355,
    "ept": 109556,
    "Âłà¸Ļà¸²à¸ĩ": 126522,
    "<|reserved_special_token_166|>": 128174,
    "Ġwiki": 29709,
    "ĠSAND": 98341,
    "ĠHour": 31933,
    "={\"": 16160,
    "Ġì¢ħ": 99458,
    "ĠConstitution": 18039,
    "(scroll": 72289,
    ".t": 739,
    "atars": 44958,
    "eyh": 122734,
    "Ġmisunder": 38726,
    "Ġscarf": 68371,
    "$route": 58812,
    "ĉemail": 58649,
    "ĠN": 452,
    "å¥³æĢ§": 111482,
    "ë¨": 102384,
    "Ġalong": 3235,
    "à¹ģà¸ª": 104958,
    "ĠMonaco": 62651,
    "Ġevolving": 42028,
    ",},Ċ": 61099,
    "NON": 30663,
    "Ø¹ÙĬ": 109255,
    "/search": 24042,
    ".datasets": 59252,
    "ĠFurther": 15903,
    "arch": 1132,
    "viz": 70940,
    "Ġconceive": 77151,
    ".Course": 73397,
    "ĠObjectId": 51190,
    ".receive": 57151,
    "Schema": 8802,
    "acob": 40051,
    "è¨¼": 110322,
    "_POWER": 34404,
    "ĠGathering": 76685,
    "ĠÑĨÐµÐ»": 107796,
    "ĠForCanBeConvertedToForeach": 80371,
    "Ġmond": 62940,
    ".scalajs": 26903,
    "ĠReyn": 40183,
    "Ġbordered": 77317,
    "Ġrevolution": 14110,
    "å¾ĵ": 123532,
    "raÄį": 108109,
    ".sec": 55794,
    "íĥĪ": 110517,
    "ĠPRIMARY": 38567,
    "Further": 31428,
    "Ġcontrat": 88103,
    "Ultimately": 67343,
    "ĠvidÄĽt": 120680,
    "ĠÐ³ÑĢÐ¾": 111046,
    "reaction": 60307,
    "(gs": 84494,
    "Ø´Ø±ÙĥØ©": 125597,
    "ĠPublished": 30114,
    "Ġdiscourage": 66087,
    "Ġindice": 57182,
    "ean": 5420,
    "Ġheartbeat": 53205,
    "Ġ;;=": 57722,
    "sek": 57367,
    "Ġoverly": 39532,
    "à¤¾.Ċ": 120337,
    "à¥įà¤¤à¤®": 114932,
    "Ġencompass": 38632,
    "_INDEX": 14855,
    "/control": 83767,
    "Ġcords": 80717,
    "\"P": 68781,
    "ĠPrec": 42770,
    "Ġmeetup": 96257,
    "bsolute": 17280,
    "ĠIDb": 86856,
    "Ġrestoring": 50203,
    "ĠÎ®": 101941,
    "_TIME": 10257,
    "Î´ÎŃ": 118262,
    "ĠRodgers": 50117,
    "Ind": 1451,
    "Ġgere": 67387,
    "Ġomap": 89336,
    ".factor": 84934,
    "Ġmodem": 52604,
    "Ġthereof": 34366,
    "Ġusability": 76160,
    "STONE": 94971,
    "Ġ::=": 65254,
    "Apparently": 70043,
    "posure": 12313,
    "Timeout": 7791,
    "_colors": 34770,
    "Ġline": 1584,
    "å»¶": 109337,
    "ĠTopic": 34011,
    "_sets": 21992,
    "á»ĵi": 102490,
    "Ġstressing": 94791,
    "ĠçµĲ": 127541,
    "Ġburgers": 63452,
    ".timestamp": 23327,
    ".day": 27308,
    "Machine": 22333,
    "ÏĢÎŃ": 112388,
    "agara": 60822,
    "ÐĶ": 25079,
    "Ø§ÙĦØª": 104211,
    "Ġrekl": 100180,
    "Ġsolidarity": 44254,
    "_steps": 23566,
    "ĠÑģÐ»Ð¸Ð·": 117946,
    "mars": 96026,
    "à¤¼": 100395,
    "Vk": 97179,
    "dtype": 48827,
    "æĦıåĳ³": 115552,
    "jspx": 31577,
    "note": 10179,
    "ĠÐ½Ð°Ðº": 117439,
    "uffle": 13511,
    "ĠÐ·Ð°Ð²Ð´": 113518,
    "pez": 41059,
    "ĠStarts": 48828,
    "ĠvzdÄĽlÃ¡vÃ¡nÃŃ": 121662,
    "oredProcedure": 46617,
    "_while": 87169,
    "ĠAero": 89523,
    "Ġ\"\")": 11962,
    "Ġbalances": 39954,
    "Ġtháº£o": 111018,
    "Ġtimer": 9198,
    "ç¶ĵ": 104150,
    "ĠPackaging": 70888,
    "Patrick": 66320,
    "Ġaalborg": 76944,
    "éŃ": 101523,
    "lain": 53071,
    "Ġconfidently": 78076,
    "ÑģÐ¸Ð¸": 104451,
    "Ġadvocated": 64854,
    "Controller": 2095,
    "Ġfiller": 55810,
    "holes": 75790,
    "_-": 40411,
    "THREAD": 48619,
    "_icons": 60919,
    ".assertIsInstance": 85030,
    "ĠCongress": 8151,
    "Ġhealth": 2890,
    "ĠLatter": 90166,
    "Ġphenomen": 17151,
    "Ġistem": 109495,
    "ĠZug": 77816,
    ".StretchImage": 98170,
    "à¸±à¸Ļà¸§": 111626,
    "Ġìı": 125906,
    "713": 22977,
    "Ġacest": 59709,
    "ĠErnest": 62023,
    "Ġvowels": 79556,
    "Signing": 94458,
    "arefa": 76351,
    "ä½Ĳ": 106150,
    "LOUR": 66872,
    "ĠVog": 67011,
    "Ġloaded": 6799,
    "ĠAccounting": 45344,
    "ĠLeft": 14043,
    "Ġrespir": 33515,
    "Ġdong": 73836,
    "Ġfar": 3117,
    "990": 19146,
    "Ġcoy": 75709,
    "Ġsomehow": 17354,
    "ĠÐ´Ð¾Ð»": 101140,
    "ÑģÑĤÑĢÑĥÐº": 79370,
    "Ġrevis": 17951,
    "Ġrenewal": 43901,
    "ĠTar": 24912,
    "åľ§": 121819,
    "ĉutil": 80238,
    "CCA": 95407,
    "-dollar": 54135,
    "Ġo": 297,
    "ĠLCD": 22745,
    "_option": 9869,
    "ĠCand": 70654,
    "ĠváºŃt": 102367,
    ",the": 63738,
    "Ġswitches": 32267,
    "ĠTig": 94979,
    ")application": 62102,
    "cannot": 34360,
    "Ð¾Ð¼": 12507,
    "à¹īà¹ī": 122954,
    "ÑĢÐ¾Ð½": 103710,
    "/forms": 26499,
    "ĠMagazine": 22168,
    "Ġpls": 87705,
    "uelles": 65832,
    ">'.": 45789,
    "Assertions": 91306,
    "èĳ¡": 126585,
    "Ġbloque": 71826,
    "ĠchÃ¢n": 107747,
    "Ġcommand": 3290,
    "Automatic": 63890,
    "(Syntax": 94649,
    "Ġannoyance": 91904,
    "Ġdismal": 94553,
    "Ġcompar": 7809,
    "Ġlate": 3389,
    "ĉServer": 93175,
    "ĠDonald": 9641,
    "ĠFoley": 80906,
    "Ġbattles": 25572,
    "Ġii": 14799,
    "ĠØ¢ÙĪØ±Ø¯": 115535,
    "Stretch": 54998,
    "âī¥": 120156,
    "/*Ċ": 3364,
    "OE": 53965,
    "Ð¸ÑĩÐ½Ð¸Ñħ": 111462,
    "port": 403,
    "Î±Î»Î»": 121992,
    "à¸¸à¸į": 110570,
    "(def": 21941,
    "rr": 637,
    "Coords": 35444,
    "Ġsey": 112264,
    "ording": 2745,
    "Ġpotrze": 89450,
    "banks": 80046,
    "Ð¾Ð»Ð¾Ð³Ð¸ÑĩÐµÑģ": 106678,
    "ĠclassName": 2022,
    "Ġváº«n": 103610,
    "medium": 27178,
    ".arc": 47156,
    "à¸£à¸ĩà¹Ģà¸£": 104476,
    "Ġtribe": 34671,
    "ãģĹãģ¾ãģĨ": 114732,
    "_province": 98216,
    "Ġdemek": 119857,
    "//----------------------------------------------------------------------------Ċ": 80038,
    "mallow": 75480,
    "legates": 54479,
    "ĉrs": 42331,
    "Ġspd": 82562,
    "_analysis": 43782,
    "Æ°á»Ŀi": 86632,
    "Ġ')'": 80475,
    "ĠPictureBox": 80749,
    "(callback": 24885,
    "Ġbiá»ĩn": 114442,
    "liqu": 41093,
    "à¸Ĳ": 101716,
    ".faceVertexUvs": 93695,
    "ìĥ": 70482,
    "<()>": 72798,
    "ĠĠĠĠĠĠĠĠĠĠĠĠĠĠĠĠĠĠĠĠĠĠĠĠĠĠĠĠĠĠĠĠĠĠĠĠĠĠĠĠĠĠĠĠĠĠĠĠĠĠĠĠĠĠĠĠĠĠĠĠĠĠĠĠĠĠĠĠĠĠĠĠĠĠĠĠĠĠĠ": 40584,
    "Æ°á»¡ng": 117220,
    "getItem": 52853,
    "ĠSingle": 11579,
    "áº¥c": 125467,
    ".OutputStream": 65400,
    "Ãªn": 28119,
    "ĠtypingsJapgolly": 72740,
    "future": 21733,
    "Ġsotto": 96341,
    "Ġapproximately": 13489,
    "]+\\": 67427,
    "_chr": 70093,
    "ĉchildren": 83570,
    "ĠWimbledon": 91257,
    "dÄ±": 100376,
    "Ġcollapsing": 72618,
    ".gridView": 62758,
    ".sd": 74391,
    "åıĮ": 104836,
    "Ġbanks": 14286,
    "553": 22663,
    "oct": 42792,
    "/*.": 24449,
    "Ġcorrelated": 49393,
    "Ġinherit": 24683,
    "à¸Ļà¸ª": 105852,
    "Filter": 5750,
    "cal": 5531,
    "ĉMD": 95697,
    "TextEdit": 87875,
    "Ġlimiting": 33994,
    ".zh": 90488,
    "Ġ?.": 81028,
    "Ġshapes": 21483,
    "Ġíķĺì§Ģ": 117193,
    "-shared": 96008,
    "312": 13384,
    "Ġchairs": 26993,
    "(encoder": 93377,
    "Ġmarried": 12502,
    "æŁ»": 112984,
    "ensing": 49205,
    "=s": 14481,
    "remarks": 14786,
    "Ġprize": 22643,
    "ĠsmÃ¥": 83944,
    "_BOOK": 62356,
    "ĠORIGINAL": 87882,
    "vr": 19456,
    "ĠKoh": 34975,
    "}}ĊĊ": 48549,
    "ÛĮØ±": 90920,
    "xFE": 42481,
    "Ġsaid": 1071,
    "ĠÃ§alÄ±ÅŁmalarÄ±": 124690,
    "ĠGAP": 90987,
    "_balance": 30496,
    "egrator": 97535,
    "Ð¸Ð±Ð»Ð¸": 127533,
    "ÐºÑĥÐ²Ð°Ð½Ð½Ñı": 108331,
    "\\web": 43263,
    "Working": 35078,
    "zh": 24752,
    "Â¶Â¶": 126619,
    "Î¸Î¿ÏĤ": 119546,
    "Ø§ÙĤØªØµ": 119286,
    "Ġment": 11540,
    "jÃŃm": 107786,
    "CALL": 26502,
    ".Void": 22453,
    "`ĊĊ": 19884,
    "Uri": 14223,
    "Ð½Ð¸Ð»Ð°": 127279,
    "ĠHoÃłng": 111978,
    "ĠmyÅ¡": 117853,
    "Ì£c": 124266,
    "incinn": 33097,
    "unei": 96323,
    "ĠëĮĢíķ´ìĦľ": 122115,
    "elite": 71391,
    "_predict": 27913,
    ".Dialog": 27952,
    "imate": 3509,
    "Ġseus": 42498,
    "ĠAleks": 90678,
    "ĠBulletin": 61063,
    "Gran": 91823,
    "arasÄ±": 106550,
    "ĠSeeder": 71838,
    "Ġredundant": 48832,
    "ĠØ§ÙĦØªÙĤ": 117048,
    "nutrition": 83664,
    "ãģ«ãģ¤ãģĦãģ¦": 109853,
    "pizza": 93538,
    "ĠComponent": 5695,
    "ĠÐłÐµÑģÐ¿ÑĥÐ±Ð»Ð¸": 122645,
    "_workers": 44657,
    "@": 31,
    "({\"": 17289,
    "hetics": 49466,
    "Ġcontinental": 58636,
    "ä¿º": 105464,
    "GridView": 6176,
    "zn": 20926,
    "adow": 5967,
    "Ø®ÛĮØµ": 121836,
    "à¥ĩà¤Ĥà¥¤Ċ": 115375,
    "Ġunwrap": 80913,
    "soup": 90642,
    "ĉhs": 82792,
    "Ġspec": 1424,
    "åŀ": 101037,
    "Ð°ÑģÑģ": 29500,
    "Ġpravidel": 116940,
    "EV": 47110,
    "ĠgetUserId": 88598,
    "Ð±Ðµ": 117050,
    "ĠPvt": 61775,
    "Ġuninterrupted": 99250,
    "ç§»åĬ¨": 120605,
    "Ġê²°": 83719,
    "Ġmilano": 42874,
    "ä»»": 49988,
    "ĠExplos": 85966,
    "ĠSimpleDateFormat": 27272,
    "Ġkab": 75095,
    "Ġrhet": 29486,
    "Ġconcert": 21497,
    "/tr": 22205,
    "Ġrenders": 45382,
    "Ġtoughness": 77318,
    "skÃ½mi": 123387,
    "Ġsha": 16249,
    "_contents": 17096,
    "Ġgallery": 18537,
    "Ġcate": 59239,
    "Ġhaunted": 57775,
    "Ġsuch": 1778,
    "Ð¸": 1840,
    "Ġinit": 3003,
    "ëĭ´": 102997,
    "Ġoyuncu": 119750,
    "phi": 17247,
    "ĠMontana": 37105,
    "Ġstimulus": 39535,
    "dit": 18225,
    "ĠdobÄĽ": 108070,
    "Ġjako": 50826,
    "Î¼Î¬ÏĦÏīÎ½": 109959,
    "çı¾åľ¨": 112599,
    "efully": 74092,
    "ĠtÅĻetÃŃ": 118970,
    "Ġpossibility": 13336,
    "à¸²à¸«": 101731,
    "Ġdose": 19660,
    ")Math": 46264,
    "Ø«ÙĬØ±": 108026,
    "589": 22905,
    "(machine": 81312,
    "èª¬æĺİ": 122984,
    "ëĮĢíĸī": 108945,
    "ĠÑģÐ¾Ñģ": 112154,
    ".peer": 73964,
    "ĠMalays": 23764,
    ".Combine": 32224,
    "afx": 35278,
    "Î¤Î¡": 126416,
    "Ġíģ´ëŀĺìĬ¤": 94282,
    "Ġcopper": 24166,
    "-shop": 76014,
    "ailing": 14612,
    "Ġentertain": 46276,
    "/File": 65168,
    ".Fatalf": 31862,
    "Ġdevant": 77558,
    "ĠHindus": 82729,
    "Tue": 62148,
    "arded": 21632,
    "Ú¯ÙĬ": 119437,
    "Î³Î¿Î½": 125403,
    "_shutdown": 55904,
    "Ġà¤Ĩà¤¦à¤®": 124596,
    "iÃ§Ã£o": 39180,
    "ĠPositions": 76483,
    "(({": 36682,
    "AGED": 63067,
    "Ġcoffin": 78766,
    "anges": 5637,
    "Ġfrequently": 14134,
    "ĠproductService": 100095,
    "'$": 45801,
    "Ġperformers": 45518,
    "Ġqw": 42278,
    "ĠåĿ": 111020,
    "ĠAbilities": 80477,
    "_delta": 27808,
    "ì¢ĭ": 125267,
    "Ġopposite": 14329,
    "=\"${": 21083,
    "ibilidad": 57335,
    "ĠPIC": 61706,
    "ĉLCD": 90384,
    ".ticket": 73020,
    "(login": 32687,
    "Ġinvasive": 53354,
    "ysics": 17688,
    "\").Ċ": 39709,
    "bedo": 90087,
    "\"]],Ċ": 79400,
    "Ġpressures": 40850,
    ">{!!": 90747,
    "ĠVehicles": 56120,
    "spd": 91863,
    "Slides": 74858,
    "rest": 4014,
    "Ġ'')": 13760,
    "ĠlÃłng": 124416,
    "Î¹ÏĥÏĦÎ·": 123427,
    "ĠMcGregor": 69116,
    "Ġmultiplying": 85292,
    "<bool": 17464,
    "Wave": 52782,
    "_COMP": 15318,
    "_rc": 31399,
    "ĉswitch": 9138,
    "ĠRECEIVE": 89975,
    "Ġhrad": 124497,
    "BW": 78663,
    "à¹ģà¸ľà¸Ļ": 122174,
    "Ġquietly": 30666,
    "Pwd": 55457,
    "ĠçĻ¼": 114251,
    "Ġmuch": 1790,
    "wright": 53852,
    "ÂłĠÂłĠÂł": 119576,
    "Com": 1110,
    ".execSQL": 66151,
    "ĠkararÄ±": 123444,
    "Ġtun": 11716,
    "\\Bundle": 32574,
    "ÈĻi": 28371,
    "ĠçĻ¾åº¦æĶ¶å½ķ": 115058,
    "(exports": 35525,
    "_lex": 75647,
    "defs": 49585,
    "resent": 2762,
    ",t": 14287,
    "Ġpriest": 28185,
    "Ġrelat": 91903,
    "èµ«": 118287,
    "ĠJob": 12280,
    "'-": 25279,
    "ë¦°ìĿ´": 119868,
    "_port": 8889,
    ".mybatis": 40449,
    "(rx": 76379,
    "Ġà¤ħà¤ªà¤°": 123431,
    ".Package": 50934,
    "pin": 13576,
    "Ġdesperately": 38643,
    "parentId": 54648,
    "_CONTENT": 26641,
    "ocese": 58744,
    "Ġadequ": 41228,
    "ĠGaines": 83779,
    "ĠSmy": 94502,
    "ĠIcelandic": 100248,
    "766": 25358,
    "ĠFORM": 28924,
    "listener": 36139,
    "ĠTroll": 93737,
    "ĠnÃŃÅ¾": 122158,
    "uttle": 99343,
    "mAh": 79635,
    "\"čĊčĊčĊ": 78867,
    ".DOWN": 81795,
    "cccc": 56697,
    "(App": 24109,
    "Ð¸Ð»": 64292,
    "Ġdepressing": 71810,
    "Ġexpulsion": 95989,
    "ĠSlug": 94713,
    "KeyName": 59760,
    "ĠÏĢÎµÏģÎ¹": 103083,
    "ĠParker": 29306,
    "roat": 18283,
    "ç·ı": 110022,
    "RAY": 27758,
    "Äįky": 106504,
    "äº§ä¸ļ": 118045,
    ".Pr": 18431,
    "kÄĻ": 85544,
    "Ġinstrument": 14473,
    "ĠÑĥÐºÐ°Ð·": 68214,
    "$this": 3657,
    "fish": 18668,
    "Ġcivic": 44973,
    "ĠÑģÐ¸Ð»ÑĮ": 105549,
    "ipelines": 95097,
    "ĉsign": 70154,
    "ĠSharePoint": 77246,
    "ĠÑģÑĤÐ°ÑĤÑĤÑĸ": 115259,
    "Ġreinst": 69767,
    "Ġíķµ": 125959,
    "Weak": 50749,
    "ĉx": 10436,
    "Ġteen": 9562,
    "ĠPCS": 92197,
    "_parallel": 61725,
    "Ġidentifiable": 72450,
    ".pb": 39016,
    "Ġcompelling": 29722,
    ":t": 61877,
    "BO": 4782,
    "ĠCascadeType": 91390,
    "ĠGiz": 67388,
    "Ġbewild": 99774,
    ".addData": 88809,
    "ĠØ¨ÙĦ": 102073,
    "-B": 7826,
    "Ġsecretly": 42839,
    "çļĦæīĭ": 123804,
    "Naz": 94171,
    "ĠnabÃŃzÃŃ": 117772,
    ":checked": 98481,
    "Ġrecreational": 37100,
    "ĠasÃŃ": 37560,
    "ĠDefensive": 71248,
    "ÏģÎ¹ÏĥÏĦ": 117285,
    "Ġfingers": 19779,
    "Fn": 25955,
    "addEventListener": 33474,
    "á»Ļn": 111322,
    "ĠPos": 19408,
    "ĠÄįasto": 110605,
    "ĠçĶŁåĳ½åĳ¨æľŁåĩ½æķ°": 64960,
    "Ð»ÐµÐ½Ð¸Ñı": 62776,
    "Ġclang": 18761,
    "Ġdraining": 74109,
    "(renderer": 59272,
    "Ġ$('": 16092,
    "ĠTrusted": 96525,
    "Ġfew": 2478,
    "ĠØ¨Ùĥ": 111311,
    "_mgmt": 97114,
    "_COMPAT": 77870,
    "Ġscalp": 65426,
    "_PHYS": 69456,
    "Bá»Ļ": 119781,
    "ĠFOUR": 75191,
    "Ġ[=[": 91397,
    "261": 15602,
    "/home": 18716,
    "ĠChemistry": 42846,
    "_CB": 50033,
    "Ġdorm": 30209,
    "\":Ċ": 4764,
    "stered": 83980,
    "281": 15282,
    "Ġexit": 4974,
    "ĉright": 49021,
    "ĠtrÃ¡v": 123999,
    "/storage": 54445,
    "_PRINT": 24293,
    "ĠStevenson": 83048,
    "Equal": 3066,
    "zi": 8510,
    "æ³Ĭ": 117856,
    "Ġquarterback": 20046,
    "Ġdetectives": 59859,
    "Ġfruitful": 89684,
    "(UI": 55502,
    ".drop": 19628,
    "\"We": 10944,
    "Ġrealmente": 69947,
    "Ġà¤§": 101786,
    "over": 2017,
    ".LA": 81889,
    "ĠChoi": 87673,
    "ĠProceed": 41870,
    "Ġmeasuring": 30090,
    "ĠØ³ÛĮØ³ØªÙħ": 109166,
    "..": 497,
    ",ch": 71097,
    "_Resource": 87446,
    "Ġtempl": 68630,
    "ĠÐ²Ð¸Ð¹": 114967,
    "Craft": 39949,
    "ĠÐŁÐŀ": 123498,
    "Ġconsenting": 93501,
    "ĠÐ³Ð»Ð°": 105835,
    "ë¯Ģë¡ľ": 117622,
    "ĠShooting": 61881,
    "ĠPluto": 78681,
    "Ġarcpy": 92993,
    "Obj": 5374,
    "ãģĹãģ": 21105,
    "ĠÐĿÑĸ": 123268,
    "nvarchar": 64665,
    "ĠBalanced": 98209,
    "ĠFOX": 45288,
    "Ġkole": 59119,
    "Ġstress": 8631,
    "Ġurn": 66967,
    "(filtered": 87121,
    "zag": 93774,
    "ç¢º": 105184,
    "Ġdecode": 17322,
    "Î¼ÎŃÎ½Î¿ÏĤ": 119099,
    "ufact": 4830,
    "Äŀ": 103531,
    "Ð´Ð°ÐµÑĤ": 111986,
    "Ġinicial": 49656,
    "Ġsworn": 51748,
    "ĠCDs": 62437,
    "/win": 98818,
    "ledo": 61755,
    "Ġnative": 10068,
    ".nd": 25093,
    "_OVER": 33143,
    "LC": 8724,
    "_instr": 63674,
    "para": 15138,
    ".dom": 22151,
    "ĠÑĢÐ¾ÑģÑĸÐ¹": 113416,
    "isclosed": 74790,
    "ĠHor": 15083,
    "Ġren": 5790,
    "ĠKomment": 68589,
    "_friend": 61680,
    "Ġcreampie": 62177,
    "ĠPilot": 45599,
    "ĠSalad": 64646,
    "-----ĊĊ": 71774,
    "ĠÙĩØ§": 101610,
    "_monitor": 41212,
    "_tid": 74819,
    "Ġfallout": 65252,
    "Ġpayloads": 90623,
    "Ġmonitoring": 16967,
    "Ġmom": 3450,
    "loid": 52196,
    "']['": 4274,
    "Ġà¤µà¤ķ": 117388,
    "Ġdataset": 10550,
    "writeln": 94556,
    ")];Ċ": 12872,
    "ĠDeng": 92829,
    ":function": 18418,
    "encrypted": 37544,
    "ĠColeman": 50532,
    "_verts": 99135,
    "Ġexter": 55367,
    "ĠÐ¾Ð±Ð¾": 123193,
    "quest": 724,
    "ĉim": 55992,
    "Ġrtrim": 85565,
    "Ġsacred": 32442,
    "ĠTeil": 48455,
    "_own": 83200,
    "Ġeql": 68476,
    "Î¿ÏįÏĤ": 111130,
    "Ġreactions": 25481,
    "riteria": 5204,
    ";r": 86408,
    "otoxic": 91676,
    "Ġfrente": 57822,
    "memcmp": 62634,
    "Ġcrop": 19641,
    "ĠCAL": 34007,
    "ĠStreamReader": 47911,
    "navigationBar": 83753,
    "ORIES": 43837,
    "repositories": 83007,
    "_shape": 13911,
    "ĠAirways": 70502,
    "Traits": 43920,
    "(firstName": 90257,
    "ĉinput": 23235,
    "ĠStop": 14549,
    "ĵn": 111972,
    "plays": 28897,
    "sqrt": 27986,
    "à¤¤à¤°": 106299,
    "examples": 52768,
    "ĠfileId": 92361,
    "ĠCoff": 76233,
    "-disabled": 69167,
    "Ġinvokevirtual": 70925,
    "Ġnob": 13348,
    "ĠÑģÐ²Ð¾Ñİ": 105476,
    "Ġcyst": 63581,
    "/command": 84305,
    "ĉgpio": 68682,
    "ÑĢÐ¸Ð¹": 107089,
    "Ġfruition": 94706,
    "Ġneuro": 18247,
    "ï¼ī": 7705,
    "æ¤į": 109178,
    "ileceÄŁi": 117205,
    "(',',$": 94373,
    "ĠWinn": 41631,
    "-modal": 26177,
    "Ġcapturing": 40880,
    "#c": 93353,
    "Ġclases": 96673,
    "Ġgigs": 78920,
    "Ġspiele": 92955,
    ".spinner": 74780,
    "-sharing": 55856,
    "Ãªs": 37930,
    "ĠEmirates": 49801,
    ".phi": 92585,
    "inner": 4481,
    "ĠThiÃªn": 114956,
    "ahrungen": 75474,
    "ç¦»": 104787,
    "ĠPÃ©": 80967,
    "_DATE": 19007,
    "Hey": 19182,
    "Ġanalysts": 31499,
    "_itr": 73038,
    "_article": 38421,
    "ê¸ī": 102662,
    "ëĭĿ": 117254,
    "ĠActors": 82461,
    "ĠDIS": 12244,
    "ĠDell": 39424,
    "cadena": 87963,
    "promise": 50650,
    "Ġnoche": 75522,
    "Ġshows": 5039,
    "[length": 58356,
    "Ġskb": 68923,
    "ĠØ¯ÙģØ§Ø¹": 120716,
    "ĠVocabulary": 99272,
    "ĠØ²Ùħ": 104419,
    "TEE": 60079,
    "ĉgbc": 79639,
    "ĉsize": 14153,
    "ÏĦÏĮÏĤ": 112613,
    "ĠdataTable": 63866,
    "ĠÐ¶ÐµÐ»ÑĥÐ´": 118956,
    "(cards": 74963,
    "à¥ģà¤£": 111167,
    "Ġ\">": 30057,
    "sem": 7143,
    "ĠIronically": 94980,
    "ĠMoh": 20409,
    "Ġclinically": 70432,
    "Ġviolating": 45462,
    "Ġclassifiers": 72391,
    ".Client": 11978,
    "\\s": 33507,
    "ĉToast": 80387,
    "/screens": 60486,
    "_interaction": 98494,
    "udem": 88305,
    "ĠSpears": 95055,
    "Ġbibliography": 94798,
    "Ġà¤Ĩà¤¦": 105045,
    "ĠØ¹Ø±Ø§ÙĤ": 121081,
    "_READONLY": 94795,
    ".GetInstance": 54148,
    "ĠdomÃ¡cÃŃ": 121830,
    "Ġ(\"": 3573,
    "Ġrepeated": 11763,
    "Ġcur": 2917,
    "-notes": 62967,
    ";;;;;;;;;;;;;;;;": 72509,
    "ĠCoy": 63073,
    "Ġphot": 4604,
    "ĠÎ¼ÏĮ": 110701,
    "ĠThousands": 63294,
    "_ATOM": 98460,
    "ÙĨØªØ§Ø¬": 120114,
    "ĠĠĠĠĠĠĠĠĠĠĠĠĠĠĠĠĠĠĠĠĠĠĠĠĠĠĠĠĠĠĠĠĠĠĠĠĠĠĠĠĠĠĠĠĠĠĠĠĠĠĠĠĠĠĠĠĠĠĠĠĠĠĠĠĠĠĠĠĠĠĠĠĠĠ": 42156,
    "thren": 63364,
    "Ġknife": 22145,
    "Ġrefined": 38291,
    "ade": 1037,
    "_MESSAGES": 70585,
    "motor": 59088,
    "fuse": 96692,
    "Queries": 56361,
    "ãĥĸãĥª": 124366,
    "ĠiÅŁe": 119547,
    "Wide": 62070,
    "_DYNAMIC": 58456,
    "Ġimpressions": 51091,
    "Âĩ": 121892,
    "ĠBITS": 92249,
    "(rc": 36529,
    "Ġcomfy": 60421,
    "agation": 28236,
    "ACEMENT": 89906,
    "ownik": 73832,
    "ĠBags": 64823,
    "ĠDE": 3467,
    "dÃ¼": 102234,
    "íĹĪ": 115253,
    "Ġbesten": 53847,
    "Ġmandated": 65509,
    "Ġsys": 5826,
    "Ġaaa": 84565,
    "Ġnutrients": 37493,
    "(collection": 36966,
    "Ġcontributions": 19564,
    ".receiver": 81718,
    ";'": 37094,
    ".setBorder": 43001,
    "Ø§ØŃØ©": 109735,
    "á»¡": 112878,
    "ĠDefender": 66114,
    "à¤¿,": 110872,
    "ĠFamily": 12517,
    "Ġprer": 99961,
    "æī¾": 93233,
    "Ġpháº¡m": 105167,
    "ĠÙĨÛĮØ³Øª": 105182,
    "space": 8920,
    "Ã¡nt": 86533,
    "Ġà¤ľà¤®": 109222,
    "Ġforbid": 74731,
    "ĠGOD": 59478,
    "Ġfleets": 91749,
    "Value": 1150,
    "arParams": 64852,
    "ĠdÃ¡ng": 122936,
    "mail": 3796,
    "ĠConnecticut": 31461,
    "ĊĉĉĉĊ": 47552,
    "uffled": 43435,
    "riad": 47639,
    "Ġgsi": 98070,
    "ĠzamÄĽÅĻ": 120901,
    "inez": 39395,
    "xr": 52097,
    "ÐµÑĢÐ°Ð¼Ð¸": 117196,
    "jsc": 76627,
    "Ġdirected": 15910,
    ".person": 31970,
    "à¸Ħà¸£à¸ļ": 120887,
    "ĠJobs": 23946,
    "Ġbloody": 36277,
    "Ġebook": 35097,
    "Ġaluminium": 55993,
    "-is": 31530,
    "Phill": 92777,
    ".Perform": 22494,
    "Ġharmony": 26348,
    "ĠShrine": 94574,
    "Ġportraying": 99597,
    "Ġbow": 15631,
    "ikip": 14970,
    "piring": 79863,
    ".proj": 83277,
    "ĠKashmir": 50280,
    "ĠUIStoryboardSegue": 70260,
    "ĠvÃ¥r": 97597,
    "ĠEx": 1398,
    "Ġè¡": 78507,
    "ĠÎ±Î½Î±": 102960,
    "Ġargues": 29633,
    ".MULT": 93664,
    ".:.:.:.:.:.:.:.:": 105356,
    "363": 18199,
    "Ø§ÙħØ¬": 121338,
    "Ġstarred": 59335,
    "ĠBeginners": 91268,
    "ãĤ¸ãĤª": 121714,
    "-begin": 92773,
    "à¤Łà¤ķ": 116242,
    "ÐµÑĢÐ¿": 114471,
    "mf": 29224,
    "âĢĻaut": 57287,
    "Ġcommodity": 38983,
    "Ġorientations": 89935,
    "Ġpthread": 20532,
    "Ġrobber": 71650,
    "ĠmessageId": 75793,
    "Ġyaml": 33346,
    "Verb": 68046,
    "Ġthuis": 55384,
    ")(((": 11379,
    "ĠÃ¼lkenin": 125049,
    "ĠBulld": 57754,
    "Ġadventurous": 68188,
    "==$": 60397,
    "ĠmoÅ¾nosti": 125515,
    "**/Ċ": 32829,
    "helpers": 22470,
    "ĠpublicKey": 70447,
    "################################": 5134,
    "wer": 6703,
    "yled": 7756,
    "ĠUNIVERSITY": 82373,
    "Ġ{})Ċ": 36348,
    "Ġhighlight": 11415,
    "ataset": 8534,
    "ĠNI": 42601,
    "ê½": 123585,
    ".writeFile": 71107,
    "ĠITE": 68056,
    "ĠplÃ¡n": 109914,
    "Ġunresolved": 81261,
    "Ġdeck": 9722,
    "Ġamel": 126641,
    "ãĥ¼ãĥª": 111672,
    "*/ĊĊĊ": 36215,
    "_pipeline": 46287,
    "æ²Ī": 120299,
    "ĠPreferred": 63603,
    "ĠQDom": 99623,
    "Packages": 70613,
    "cursor": 17894,
    "dfa": 98649,
    "Ġfractures": 78332,
    "Ġpapel": 70257,
    "666": 10943,
    "mor": 57902,
    "Ġmillennium": 89785,
    "('--": 17052,
    "ÃĻ": 123086,
    "ĠRegina": 70780,
    "åĩ¡": 118641,
    "ilm": 9672,
    "ĠÎ½ÎµÏĨÎ¿ÎºÎ¬Î»ÏħÏĪÎ·ÏĤ": 125035,
    "ÛĮØ´Ùĩ": 108016,
    "Ãºblica": 69174,
    "IPS": 27034,
    "ĠÃºnico": 75401,
    "Validate": 18409,
    "`),Ċ": 90846,
    "ĠMarshal": 36767,
    "Ġpas": 6502,
    ".mock": 15418,
    "ensburg": 78029,
    "pix": 36584,
    "_building": 83497,
    "Ġluggage": 51597,
    "Å¼e": 16020,
    "ĠsetMessage": 67991,
    "18": 972,
    "ledi": 104181,
    "ĠmÃª": 123299,
    "Ġ----------------": 14730,
    "Ġreorder": 84284,
    "664": 23888,
    "Ġasoci": 70096,
    "ogh": 65036,
    "Ġartic": 28664,
    "Ġreklam": 114159,
    "/slider": 91839,
    "Ġman": 893,
    "íĥĿ": 104727,
    "Ġalguna": 73127,
    "ĠborderSide": 98755,
    "ĠDebbie": 64489,
    "Ġmeltdown": 91140,
    "_prices": 66788,
    "argest": 33481,
    "åįķ": 24946,
    "Ġgloves": 36516,
    "Asc": 41203,
    "timeofday": 60623,
    "ë¡ł": 103778,
    "ĠSund": 37902,
    "Ġkannst": 66936,
    "ĠDetector": 80119,
    "strength": 75337,
    "Ġentrances": 95679,
    "ĠÙĦÙĬØ³": 119261,
    "_five": 96358,
    "ìľĦ": 82001,
    "ĠØ¹Ø²ÛĮØ²": 125512,
    "_OF": 14568,
    "_FIXED": 67400,
    "Ġstuck": 16075,
    "CLUDING": 10972,
    "Ġdeploy": 10739,
    ".left": 8436,
    "à¥Ĥà¤ģ": 110522,
    "ĠĠĠĠĠĠĠĊĊ": 66768,
    "ĠIf": 1442,
    "<|reserved_special_token_102|>": 128110,
    "Ã¼s": 101789,
    "áº½": 100651,
    "480": 11738,
    "Ġrefused": 16436,
    "Å¼": 6077,
    "KANJI": 97710,
    "Ġcoquine": 65258,
    "Ð¾ÑĢÐ°Ð»ÑĮ": 120507,
    "ĉlocal": 9030,
    "Ġmisses": 43394,
    "_UNUSED": 33016,
    "olecule": 55269,
    ".radians": 91744,
    "_verified": 72971,
    "isFunction": 95244,
    "ĠEveryday": 79716,
    "Ġtratt": 94034,
    "Ġë¶ģ": 108772,
    "Î¹Î¿ÏĤ": 113590,
    "Ø±ÙĬÙĥÙĬ": 114058,
    "PIO": 6472,
    "ois": 30148,
    "Driven": 99584,
    "Ġscissors": 72724,
    "ĠtáºŃn": 115986,
    "(Constructor": 92296,
    "'>Ċ": 9723,
    ".ft": 54923,
    "_CHOICES": 76095,
    "Ġinitializer": 43412,
    "Ġlawful": 52321,
    "Ġtodd": 39034,
    "ICLE": 33738,
    "ÙĤÙĩ": 102002,
    "scale": 12727,
    "ĠMinister": 9675,
    "ĠKrishna": 80409,
    "ÑĳÑĤ": 106822,
    "Ġsinful": 97727,
    "Ġsurpr": 6350,
    "ĠÐĴÑĭ": 72731,
    "ĠÙĪØ´": 120193,
    "ĠSignal": 28329,
    "Ġcannabinoids": 93986,
    "store": 4412,
    "Ġlifted": 30831,
    "(marker": 56108,
    "ĠJComboBox": 88749,
    "Ġ)),Ċ": 40390,
    "Ġsensory": 49069,
    "ĠInvestigation": 47997,
    "Ġmandate": 35381,
    "general": 25615,
    "Ġeffected": 89589,
    ".fb": 54807,
    ".Xna": 44950,
    "Ġ['./": 18701,
    "comed": 31090,
    "ä¸¤äºº": 124907,
    "ä¸ºç©º": 51747,
    "ĠCLIENT": 41397,
    "ĠProvision": 72673,
    "ĠRobotics": 77564,
    ".robot": 46548,
    "Ġdoping": 97928,
    "ĠÐ¸Ð½ÑĦÐ¾ÑĢÐ¼Ð°": 108449,
    "untas": 55672,
    "isphere": 47894,
    "ĠCommunities": 58443,
    "ĠÙĪØ£": 102926,
    "ÑĢ": 2233,
    "repo": 24373,
    "},Ċ": 1613,
    "cap": 11600,
    ">f": 85494,
    "Ġconsider": 2980,
    "Ġscreens": 15670,
    "57": 3226,
    "ĠmÃ©t": 36252,
    "Ġrise": 10205,
    "TOR": 50758,
    "ĠÑĤÐ²Ð¾ÑĢ": 106462,
    "kb": 22016,
    "ĠFus": 94400,
    "ÏĨ": 86134,
    "Ġodense": 75987,
    "Ġthey": 814,
    "çİĩ": 96455,
    "ĠFifth": 23690,
    "ĠTorah": 73050,
    "ĠArth": 109588,
    "tam": 73807,
    "Ġ'.'": 25360,
    "\"label": 93767,
    "loan": 39429,
    "Ġintellectually": 94391,
    ".setSelected": 41374,
    "[self": 14664,
    "ĠÐľ": 45458,
    "Ġintim": 22713,
    "\\Request": 14536,
    "Ġfw": 34986,
    "acias": 43542,
    "ÑģÑĮÐºÐ¸Ñħ": 103675,
    "ĠMoody": 72401,
    "Matt": 40917,
    "Ġpais": 62383,
    "Ġtherein": 58179,
    "Ġ'':Ċ": 49215,
    "ĠOwnership": 86036,
    "-ap": 46256,
    "Î±ÏģÎ¯Î¿Ïħ": 119940,
    "åıĥ": 110259,
    "Ġskilled": 26611,
    ":_": 22810,
    "ÂłF": 117899,
    "ë©°": 101203,
    "abi": 26140,
    "Ġtá»ĩ": 120070,
    "Float": 5559,
    "gas": 40625,
    "T": 51,
    "perature": 14702,
    "Ġcors": 45011,
    "hell": 57195,
    "setError": 99230,
    "Ġblogger": 40281,
    "Ġliqu": 12046,
    "Ġstick": 9396,
    "Ġlogout": 23161,
    "olicited": 92204,
    "ĠÙĤÙĪØ§ÙĨ": 122004,
    "roke": 7593,
    "Jar": 72835,
    "èĴ": 103858,
    "mÃ©nÄĽ": 115269,
    "ëĬĶ": 16969,
    "Ġì°¾": 107364,
    "ĠyaptÄ±k": 117592,
    "ĠZah": 97955,
    "ĠXVI": 94937,
    "/system": 29239,
    "_DEST": 46974,
    "ĠSÄ±r": 126236,
    "Ġlf": 59180,
    "ÑĢÑĥÐº": 64478,
    "å¥ĸ": 105887,
    "ĠFibonacci": 80783,
    "ĠOriginally": 25842,
    "ĠProjection": 70415,
    "$:": 63646,
    "msp": 93645,
    "receipt": 63723,
    "Ġaujourd": 75804,
    "ConfigurationException": 99292,
    "CrLf": 84529,
    "_fl": 5191,
    "ounding": 13900,
    "ê°": 14705,
    "ĠSnake": 40756,
    "Ġhull": 41298,
    "Ġretirement": 21624,
    "Buf": 15414,
    "Ġroma": 58567,
    "g": 70,
    "ĠChapter": 15957,
    "ĠÙģÙĨ": 108510,
    "Ġbritish": 95027,
    "ä»¤": 103507,
    "alice": 64295,
    "ĠProviding": 81200,
    "Ġtestimony": 24365,
    "aines": 33903,
    "ĠWindowManager": 78855,
    "Ġvelocities": 75157,
    "Ð¾Ð´": 9706,
    "ĠRain": 22674,
    "Ġoxid": 36172,
    "Ġgoed": 47501,
    "ĠMacros": 99547,
    "Ġkut": 31699,
    "Ġposter": 23163,
    "apple": 23182,
    "ĠëĺĲëĬĶ": 108520,
    "ĠSight": 66437,
    "ĠProfit": 58882,
    "('')Ċ": 38465,
    "âĢĭĊĊ": 34721,
    "pis": 57996,
    "letic": 22740,
    "ÑĬÐµÐ¼": 122222,
    "ĠÐ¼Ð°Ð»Ð¾": 112974,
    "Ġinsiders": 77814,
    "Ġdeposited": 54568,
    "containers": 40499,
    "Ġbiology": 34458,
    "ĠdataSource": 30654,
    ".rate": 53547,
    "ĠTÃ¼rk": 101054,
    "ĠFunktion": 72165,
    "Ġplaza": 73098,
    "Ġdocks": 97986,
    "_outline": 74080,
    "Ġgibi": 68945,
    "_sim": 18819,
    "duÄŁ": 106709,
    "ĠÐ¿ÑĢÐ¾ÑĨÐµÑģÑģÐ°": 124289,
    "eb": 3141,
    "OfString": 68052,
    "_NOTE": 55891,
    "_tgt": 94185,
    "ĠAv": 7671,
    "ĠPunk": 52433,
    "achten": 54876,
    "ĉJButton": 85618,
    "atial": 23241,
    "Ġstructure": 6070,
    "uffles": 78553,
    "Ø¯Ø¯": 103163,
    "Ġvalor": 14448,
    "ĠLG": 24294,
    "ĠPeople": 9029,
    "Ġasympt": 97354,
    "Ġlle": 58015,
    "Ġpigs": 49910,
    "à¸±à¸Ļà¸¢à¸²à¸¢à¸Ļ": 117823,
    "ĠÑĪÐ¿": 119723,
    "offee": 21869,
    "ĠMediterr": 37537,
    "Ġcler": 57460,
    "Ġunset": 18484,
    "Rotate": 35640,
    "_reply": 15683,
    "ĠØ´Ø¯ÙĨ": 107553,
    "Ġlobbyist": 91569,
    "ifix": 97422,
    "ticker": 69445,
    "Ġjackets": 61242,
    "ØµÙĨ": 113554,
    "ĠÐ¿ÑĢÐ¾Ð²ÐµÐ´": 104808,
    "ystem": 615,
    "å®®": 106496,
    "ĠaynÄ±": 103319,
    "Exclusive": 71505,
    "_anchor": 57632,
    "ĠØª": 40534,
    ".analysis": 59297,
    "åĩºãģĹ": 121216,
    "Ġmacht": 53649,
    "(configuration": 49824,
    "imple": 6592,
    "ĉwhen": 61280,
    "Point": 2674,
    "ĠGuzzle": 97933,
    "ĠrecyclerView": 38249,
    "Ġê·Ģ": 110946,
    "åĬ¹": 126120,
    "Ġë§Ŀ": 118974,
    "ĠTeams": 40713,
    "embali": 69805,
    "ä¸ĬçļĦ": 106583,
    "å±Ĥ": 106643,
    "Ġunfolded": 76782,
    "agini": 91169,
    "Ġpollut": 71134,
    "ĠRB": 29074,
    ".state": 3551,
    "/display": 74429,
    "anja": 95051,
    "ĠÑģÐ²Ð¾ÑĹ": 103995,
    "Ġvul": 11981,
    "à¸²à¸¥": 101474,
    "Ġtours": 31261,
    "Ġpossess": 15575,
    "ÑģÑĮÐºÑĸÐ¹": 109426,
    "Ġroaming": 69353,
    "Ġcos": 8119,
    "AreaView": 77672,
    ".animate": 38795,
    "ĠFire": 6785,
    "_MO": 18581,
    "Ġmicrobes": 80727,
    "Û±Û¹Û¹": 109873,
    "wchar": 82704,
    "Synopsis": 90170,
    "Ġ(čĊ": 26383,
    "Asset": 17015,
    "ISING": 16885,
    "ĠEpoch": 88479,
    "ĠÑĤÑıÐ¶": 109967,
    "Illegal": 34813,
    "Ġcomeback": 47637,
    "')(": 28668,
    ".Forms": 2072,
    "ĠNath": 61909,
    "_squared": 55741,
    "åŃ¦ä¹ł": 111478,
    "Ġplaintiff": 43102,
    "leton": 15989,
    "vit": 55911,
    "setw": 52922,
    "Ġmuscles": 24569,
    "ĠKhÃ´ng": 109306,
    "ä¸½": 107921,
    "']]": 31940,
    "-picker": 62246,
    "Ġdort": 53534,
    "uation": 4090,
    "Ð½Ð¸ÐºÐ°Ð¼Ð¸": 109891,
    "à¸ļà¸£": 101540,
    "uppy": 65129,
    "è£¡": 115556,
    "ATS": 50207,
    "ĉcal": 92853,
    "ĠÐ´ÑĸÑıÐ»ÑĮÐ½ÑĸÑģÑĤÑĮ": 119260,
    "ĠÑĤÑĢÐ°Ð½ÑģÐ¿Ð¾ÑĢÑĤ": 114272,
    "ixed": 3366,
    "elper": 3020,
    "ĠDefinition": 20288,
    "Ġbaby": 8945,
    ".\"\"\"": 75100,
    ".ARR": 98748,
    "Ġspit": 57087,
    "-question": 67515,
    "rians": 36268,
    "à¸Ĩ": 112680,
    "-red": 32698,
    "ĠgetUsername": 86514,
    "ventario": 77446,
    "ĠÙĪØ§ÙĦØŃ": 120594,
    "quality": 10692,
    "éĥ½ä¼ļ": 127579,
    "Ġcatholic": 83191,
    "frei": 98469,
    "-tab": 28511,
    ",\",": 59055,
    "Geom": 79808,
    "à¸¢à¸Ļ": 104298,
    "ĠShot": 33447,
    "Ġbeard": 48788,
    "Ġatau": 39472,
    "Pause": 29491,
    "wnd": 24027,
    "bservice": 65793,
    "ÏįÎ½": 103920,
    "ĠZwe": 84226,
    "Ġangrily": 87625,
    "Ġdetective": 45259,
    "Ġprevious": 3766,
    "Ġinvoice": 25637,
    "ĠpÅĻest": 108395,
    "Ġsecs": 50849,
    "ERA": 26763,
    "ZX": 81823,
    "ĠTRI": 55663,
    "ĠÐ¿ÐµÑĢÐµ": 104642,
    ".Str": 28418,
    ".IO": 8559,
    "ylation": 79933,
    "ĠMerry": 77801,
    "Ġreports": 6821,
    "Ġbisa": 41088,
    "ĠìĿ¼ìłķ": 125274,
    "=R": 73777,
    "olics": 47007,
    "ahi": 52206,
    "Ġmidd": 65703,
    "ĠactionBar": 90236,
    "Ġvriend": 80882,
    "char": 1799,
    "getPosition": 51508,
    "Ġhumming": 87427,
    "ÙĬÙĪ": 104556,
    "_ALLOW": 45424,
    "Ġinstructed": 42075,
    "DataContract": 93938,
    "uu": 31172,
    ",i": 11538,
    "ĠInvoke": 40767,
    "'Ä±": 120057,
    "nable": 16649,
    "ĠManitoba": 64340,
    "ĠCro": 25611,
    "Ġgeography": 54242,
    "çĽ´æİ¥": 109467,
    "(guess": 99402,
    "official": 33912,
    "Ġrating": 10959,
    "auga": 90624,
    "IRCLE": 65112,
    "drv": 55913,
    "ĠyeÅŁil": 126773,
    "ĊĊĊĊĊĊĊĊĊ": 55160,
    "Corporate": 87628,
    "Ġsubtract": 33356,
    "ewidth": 29457,
    "ĠÏĢÎ±Î¹": 124485,
    "Query": 2929,
    "ĠHelloWorld": 91171,
    "ĠNikon": 63252,
    "ĠnemÃ¡": 115860,
    "ĠÐºÐ¾Ð¼Ð¿Ð°Ð½ÑĸÑĹ": 123884,
    "Ġstaring": 37874,
    "ãĥķãĥĪ": 112508,
    "ĠPastor": 59766,
    "aporation": 96649,
    "Ġfrenzy": 74941,
    "Ġerrone": 58889,
    "(number": 18401,
    "ĠBs": 83286,
    "ĠCiudad": 75245,
    "ĉRT": 12089,
    "ĠNutrition": 39700,
    "familia": 105903,
    "Ġslee": 22399,
    ".getBlock": 54541,
    "amental": 44186,
    ",tmp": 76968,
    "Ġìĥģíĥľ": 117132,
    "æĦı": 37689,
    "ĠÐ»Ð¸ÑĤ": 113138,
    "ĠANSW": 97804,
    "-master": 52003,
    "NoArgsConstructor": 66124,
    "ĠAppl": 58945,
    "à¸µà¸Ħà¸§à¸²à¸¡": 107776,
    "uant": 28674,
    "_script": 15002,
    "ĠìĹ°ëĿ½": 127808,
    "ToMany": 28461,
    "ĠOh": 8840,
    "Ġpouring": 51513,
    "Ġ{{--": 24841,
    "Ġbullet": 17889,
    "TypeEnum": 89751,
    "(out": 10029,
    "Ġensuite": 76826,
    "ĠÐ²Ð¸ÐºÐ¾ÑĢÐ¸ÑģÑĤÐ¾Ð²ÑĥÐ²Ð°ÑĤÐ¸": 124336,
    "ĠÏĥÏĩ": 110564,
    "oba": 27931,
    "ĠDis": 4185,
    "heroes": 54576,
    "ische": 10782,
    "ĠsessionFactory": 71576,
    ".event": 5892,
    "ê¸Ģ": 84391,
    "Ġversch": 48808,
    "-source": 31874,
    "_ID": 3533,
    "ĠWend": 42368,
    "814": 25498,
    "Ġcoloured": 58919,
    "Ġvictim": 11996,
    "growth": 74189,
    "Ġconcise": 64694,
    "ĠçĶŁ": 59363,
    "ĠÐ·Ð°Ð»ÑĸÐ·": 125434,
    "ĠSupply": 30909,
    "Ġ?>/": 29067,
    ".hamcrest": 57510,
    "Google": 14783,
    "Ġpresume": 78495,
    "/gallery": 69080,
    "ĠÑįÑĤÐ¸Ð¼": 114509,
    "Ġà¹Ģà¸ģà¸¡": 118441,
    "Ġrequis": 45682,
    "Ġextractor": 68572,
    "ANGED": 37403,
    "Eigen": 72840,
    ".AutoSize": 10127,
    "Manifest": 39595,
    ".shopping": 83118,
    "ĠIhre": 39572,
    "Ġduvar": 120800,
    "Ġverso": 92965,
    "ĠPolice": 10289,
    "Ġesac": 82944,
    "ĠÑĤÑı": 122968,
    "ILI": 82334,
    "[m": 12335,
    "ĠGerr": 86965,
    "ĠgetPrice": 90432,
    "Ġtime": 892,
    "Ġmanipulate": 37735,
    "createTime": 84286,
    "ĠMilo": 85546,
    "Ġbeh": 2824,
    "Ġzb": 75455,
    "ĠmáºŃt": 110509,
    "_receiver": 66791,
    "ĠDÃ¼z": 123449,
    "Ġneurop": 98666,
    "(\":": 19427,
    ".Math": 47537,
    "#w": 16586,
    "ĠDied": 88987,
    "926": 26026,
    "Ġheadquartered": 81296,
    "ÑĢÐ¸Ñĩ": 124479,
    "('*": 33114,
    "Ġç½": 107292,
    ".desktop": 81528,
    "ĊĠĊ": 27907,
    "Ġsituace": 119593,
    "Ġest": 1826,
    "-byte": 55052,
    "QUIRED": 31171,
    "uania": 63611,
    "ĠCrosby": 76836,
    "_REFER": 72010,
    "yclerView": 12161,
    "Ġkicker": 87276,
    "nice": 53896,
    "RLF": 81758,
    "Ġmajestic": 81389,
    "ĠstartIndex": 41793,
    "734": 24438,
    "ĠRussia": 8524,
    "_uid": 26468,
    "Ġitr": 33933,
    "Ïį": 100315,
    "ï¿¥": 73298,
    "ĠDivision": 14829,
    "sep": 29136,
    "/action": 55865,
    "ject": 585,
    "à¸¸à¸ĵà¸łà¸²à¸ŀ": 122959,
    "respond": 6961,
    "ĠNetanyahu": 45742,
    "Ð½Ð¸ÑĩÐµÑģ": 106463,
    "Ġskirts": 77305,
    "ARDS": 60994,
    "ĠÐ¼Ð»Ð½": 113785,
    "ãģĿãģĵ": 110924,
    "ÎµÏģ": 100735,
    "baugh": 62739,
    "ĠdÃ©l": 121372,
    "ĠRM": 31915,
    "<label": 14811,
    "Som": 50982,
    "Ġ*)(": 24501,
    "=e": 41491,
    "Ġcomplained": 35070,
    "Ġç§": 76771,
    "'=>": 3803,
    "Ab": 5953,
    "Ġpowder": 17138,
    "ĠØªÙĪØ±": 109104,
    "Link": 4026,
    "_tweet": 76519,
    "ĠICommand": 51066,
    "Ġcucumber": 66032,
    "Ġjudiciary": 72975,
    "ista": 9265,
    "ĠÐ²ÑĭÐ±": 63229,
    "ĠTic": 79526,
    "rift": 42480,
    "())),": 97601,
    "Ġ,čĊ": 56919,
    "ÙĪØ¨Ø©": 120031,
    "ĠØ§ÙĦØ°Ùĩ": 108313,
    "Manager": 2087,
    "ĠRecursive": 86996,
    "Ġrelic": 62037,
    "ĠØ§ØŃÙħØ¯": 112089,
    "åĲ¦": 33476,
    "Ġauditory": 83629,
    "ĠÙĩÙģØª": 126398,
    "ena": 7304,
    "Î³Î¼Î±": 108301,
    "Ġsanct": 35589,
    "Ġate": 30912,
    "Often": 78013,
    "cribing": 44631,
    "ĠBasement": 93143,
    "Ġå¡": 116814,
    "Photos": 32872,
    "[col": 34622,
    "lef": 60338,
    "ĠQuá»ĳc": 102173,
    "ĠLem": 48506,
    "[it": 58296,
    "orthy": 34594,
    "ĠWar": 5111,
    "ĠÐ¸Ð½ÑĦÐ¾ÑĢÐ¼Ð°ÑĨÐ¸Ð¸": 123009,
    "ĠMobile": 13716,
    "Û±Û¹Û¶": 121506,
    "äºĶ": 76208,
    "(ship": 92499,
    "ĠÐ¿Ð¾Ð²ÐµÑĢÑħ": 105597,
    ".Pro": 7919,
    "Lite": 44944,
    "ĠCan": 3053,
    ".setName": 28737,
    "Ġseat": 10954,
    "Ġfer": 18728,
    "ream": 1259,
    "ĠÐ³ÑĥÑģÑĤ": 127985,
    "ĠQuarterly": 75483,
    "ĠEstate": 25447,
    "inne": 94332,
    "ìłķ": 30381,
    "avail": 71363,
    "Ãĥ": 19321,
    "Ġdetailing": 45293,
    "Ġhypothesis": 31178,
    "Ġmortality": 29528,
    "Ġneuken": 32383,
    "Ġsubordinate": 79263,
    "éĢĻ": 103864,
    "Aside": 71088,
    "Ġiterate": 30729,
    "ĠÐ·Ð°ÑıÐ²Ð¸": 119054,
    "grand": 53766,
    "Ġfatty": 40085,
    "&P": 43945,
    "(Func": 78458,
    "_blocks": 26266,
    "ĠLat": 10128,
    "ĠÑĥÐ½Ð¸Ð²ÐµÑĢÑģÐ¸ÑĤ": 121552,
    "_LINES": 67844,
    "å¹´ä»£": 112425,
    "ĠROCK": 79620,
    "Ġtelesc": 78513,
    "(*)(": 98249,
    "__).": 60143,
    "stock": 13787,
    "ÐĴÑĭÐ±": 93790,
    "ĠerrorHandler": 72173,
    "ĠÎ³": 63127,
    "Threshold": 38941,
    "ĠÄĳá»ĳc": 111739,
    "Ġ\"{$": 56077,
    "_mpi": 84912,
    "Ġdhcp": 86887,
    "ĠdatePicker": 93251,
    "_ctor": 55285,
    "anje": 86057,
    "ABCDEFGHIJKLMNOP": 75545,
    "ENTER": 13143,
    "Mul": 60255,
    "_IE": 61548,
    "Ä": 128,
    "ÑĸÑĩÐ½Ð¸Ð¹": 116778,
    "ãĢģä¸Ģ": 112160,
    "Ġcavity": 56429,
    "Ġprovider": 9287,
    "Ġà¹Ħà¸Ĺà¸¢": 124554,
    "Ð²Ð¾ÑĢÑİ": 109886,
    "*>*": 89967,
    "[H": 81485,
    "Ġwallpaper": 44686,
    "Ġvu": 33614,
    "Ġëĭ¤ìļ´ë°Ľ": 120336,
    "ĠCalif": 41889,
    "UNG": 61102,
    "/dis": 42610,
    "Ġteacher": 11326,
    "dirs": 58723,
    "anine": 92356,
    "Ġseemed": 9508,
    "/custom": 35765,
    "ĠÐ¿Ð»Ð¾Ñī": 111015,
    "ĠonNext": 95712,
    "Ġwrongdoing": 65328,
    "Ġvulgar": 74260,
    "ĉĉĉĉĉĉĉĉĉĉĉĉĉ": 18005,
    "Ġflexibility": 25152,
    "Ġgrund": 94534,
    "aktiv": 74707,
    "ĠMarch": 5587,
    "ĠLah": 68542,
    "Ġcorrectamente": 59607,
    "searchModel": 65684,
    "Bins": 87962,
    "lamÄ±ÅŁ": 110617,
    "ĠSMB": 64758,
    "$text": 50524,
    "Mic": 98402,
    "Australian": 75341,
    "ĉexpect": 25997,
    "Ġå½ĵ": 85997,
    ".\"},Ċ": 93281,
    "Ġìĥģëĭ´": 120974,
    "PMENT": 55759,
    "ayed": 43995,
    "èŃ": 92148,
    "ĠÐ½Ð¾Ð³": 114000,
    ")}</": 52078,
    "ĠCriminal": 33836,
    "ETERS": 39355,
    "ĠMuscle": 68427,
    "ãģĳãģ¦": 107441,
    "(styles": 62872,
    "Ġãĥ": 21370,
    ".bc": 85593,
    "ĠDim": 8289,
    "ĠInvalidate": 96346,
    "Ġmv": 24039,
    "invoice": 23009,
    "subscriptions": 73660,
    "ãĢĤä½Ĩ": 111825,
    "_frequency": 41232,
    "à¤¿à¤°": 100677,
    "Ġconstrued": 71259,
    "Colorado": 78569,
    "Ġæİ§": 81951,
    "ĠTopics": 41994,
    "ĠRecomm": 30901,
    "ur": 324,
    "Ġiw": 73368,
    "ÙĦØ§ÙĦ": 103042,
    "ĠOlive": 47814,
    "Ġdeficits": 57096,
    "-two": 38502,
    "']?>\"": 71601,
    "Lady": 76702,
    "Ġvztah": 110600,
    "ĠØ§ÛĮÙĨÚ©Ùĩ": 108257,
    "ĠRegistrar": 81326,
    "xED": 84323,
    "ListBox": 69387,
    "Ġchoose": 5268,
    ".\"čĊ": 72734,
    "turned": 42286,
    "èĬ¬": 126205,
    "ĠRehabilitation": 81318,
    ".ipv": 88552,
    "Ð¾Ð²Ð¾Ð¹": 106334,
    "Ġbonus": 12306,
    "covers": 56958,
    ">());Ċ": 33972,
    "ambio": 65758,
    "æ¢ģ": 117392,
    "Ġshark": 44892,
    ":SetPoint": 91405,
    "finalize": 95505,
    "Ġatrav": 71506,
    "[value": 45574,
    "malloc": 16561,
    "physical": 47692,
    "Ġperfor": 84868,
    "edeki": 121977,
    "å¦ĸ": 117566,
    "};Ċ": 2499,
    "#elif": 29949,
    "ê°Ħ": 63375,
    "ĠÐ¿Ð¾ÑĤÑĢÑĸÐ±Ð½Ð¾": 110962,
    "ĠÑĢÐ¾Ð·ÑĥÐ¼": 109612,
    "ĠÑģÐ¾ÑģÑĤ": 92175,
    "ĠJavier": 71309,
    "nict": 106489,
    "rew": 4361,
    "ãģ¨ãģªãĤĭ": 117282,
    "ĠtextSize": 78500,
    "lectron": 70329,
    "Ġkro": 119091,
    "Ġregulates": 80412,
    "xBD": 82903,
    "erval": 6283,
    "ĠUkrain": 31704,
    "ĠmÄĽ": 100729,
    "Ġchaotic": 53087,
    "ĠÒĲ": 124473,
    "ĠBrowserRouter": 63585,
    ".cor": 18672,
    "ĠØ§ÙĦØ«Ø§ÙĦØ«": 116847,
    "_positions": 38319,
    "Partition": 51078,
    "bbbb": 88709,
    "oteric": 83775,
    "ÎķÎ¥": 113394,
    "}//": 30550,
    "UserProfile": 92798,
    "Ġlbl": 16826,
    "ĠOrigin": 17554,
    "CARD": 60319,
    "ĠBip": 98948,
    "ĠØ§ÙĦØ®Ø§ØµØ©": 119583,
    "juan": 95806,
    "_latency": 75932,
    ".mark": 18913,
    "ĉcamera": 72928,
    "ĠFox": 13585,
    "851": 24866,
    "ĠHIT": 79503,
    "Ġprogramming": 15840,
    "Ġlasted": 36513,
    "icorn": 51456,
    "ĠJessie": 80217,
    "Ġtemin": 124071,
    "/window": 80343,
    "Between": 26556,
    "ĠØ·Ø±ÛĮÙĤ": 112583,
    "Ġcravings": 89928,
    "InputStream": 10689,
    "319": 16874,
    "EEP": 49964,
    "Ø§Ø¬Ø§Øª": 125342,
    "',$": 9275,
    "tracer": 96041,
    ";/": 21202,
    "Continue": 24433,
    "Germany": 51270,
    "_ar": 26927,
    "çĶŁåĳ½": 118958,
    "Ġaddictive": 57407,
    "Ġdine": 66207,
    "Run": 6869,
    "åĩºæĿ¥": 106084,
    "ÑıÐ´": 98073,
    "irement": 47668,
    "íķĻê³¼": 117995,
    "ĠĠĠĠĉĉ": 15646,
    "abant": 80383,
    "ĠBlueprint": 31103,
    "Ġcreamy": 47985,
    "lÃ¡sil": 126647,
    "Ġblo": 14545,
    "ĠÑĢÐ°Ð·Ð¼": 112103,
    "icip": 8608,
    "ĠCross": 11511,
    "ÂłM": 111658,
    "stack": 7848,
    "ĠHobby": 73692,
    "Ġdefender": 29315,
    "Ġsettlers": 61107,
    "Ãķ": 113920,
    ".CREATED": 99739,
    "VS": 27142,
    "_pix": 51746,
    "cil": 82123,
    "direction": 19612,
    "-J": 12278,
    "ordo": 52372,
    "ĠĠĠĠĠĠĠĠĠĠĠĠĠĠĠĠĠĠĠĠĠĠĠĠĠĠĠĠĠĠĠĠĠĠĠĠĠĠĠĠĠĠĠĠĠĠĠĠĠĠĠĠĠĠĠĠĠĠĠĠĠĠĠĠĠĠĠĠĠĠĠĠĠĠĠĠĠĠĠĠĠĠĠĠĠĠĠ": 66371,
    "XXX": 31200,
    "ĠMobility": 63410,
    "ĠìĶ¨": 117264,
    "Ð¸Ð»ÑĮ": 67602,
    "Ġwsp": 63607,
    "mach": 55377,
    "licer": 98343,
    ".buf": 45585,
    "_DIM": 40402,
    "ĠTreatment": 31969,
    "ĠÐ¿ÑĢÐµÑģÑĤ": 117787,
    "fusion": 55665,
    "ori": 13915,
    "Ġdevastating": 33318,
    "andard": 7803,
    "erequisites": 83401,
    "Ġretain": 14389,
    "querque": 68708,
    "ÃŃtica": 75907,
    "ï¼Įåľ¨": 97150,
    "Ġ={": 73242,
    "ĠÄįlÃ¡n": 105176,
    ".required": 20664,
    "Ġindust": 9047,
    "Ġsoph": 19219,
    "ĠAid": 38505,
    "act": 533,
    ".prompt": 66499,
    "etrize": 58053,
    "KD": 90709,
    "ĠKnow": 14521,
    "Ġmon": 1647,
    "Ġzal": 66658,
    "ĠPix": 50566,
    "Ġ(++": 47438,
    "(holder": 47926,
    ".Transparent": 33988,
    "Ġgaat": 69145,
    "Ġtoned": 98831,
    "Ti": 46451,
    "poses": 8449,
    "Ġìł": 19097,
    "Ġblame": 19065,
    "DetailsService": 73482,
    "Ġdirections": 18445,
    "endTime": 50788,
    "ĠchÄĥm": 115340,
    "Ġfry": 53646,
    "æĸĩç«ł": 83125,
    "ĠÑĥÐ¿ÑĢÐ°Ð²Ð»ÐµÐ½Ð¸Ñı": 117307,
    "ĉmain": 37741,
    "Repository": 4727,
    "uctive": 59923,
    "Ġattacked": 18855,
    "ĠRally": 59800,
    "ĠÐ¿ÑĢÐ¸": 37405,
    ".pag": 73705,
    "Ġimmersive": 65280,
    "Ġbothers": 82454,
    "ĠÑĤÐ°Ð¹": 127251,
    ".getNext": 55452,
    "htmlspecialchars": 80696,
    "Ġdocuments": 9477,
    "fection": 13421,
    "ĠPop": 10466,
    "-widget": 30012,
    "Ġpreseason": 48674,
    "repository": 24202,
    "ÐĶÐ¶": 126815,
    "Ġfailing": 22109,
    ".song": 71521,
    "Tuy": 123436,
    "ĠJudaism": 64283,
    "Ġminds": 20663,
    "_resolution": 40949,
    "ÙĦÙĬØ²ÙĬØ©": 103726,
    "ĠÐ»Ð¸ÑģÑĤÐ¾Ð¿": 117971,
    "Slice": 34336,
    "Ġinquiry": 26981,
    "Ġcookies": 8443,
    "æľĥ": 101835,
    "Ġbridge": 14497,
    "HAS": 79330,
    "Ġbribery": 93137,
    "errat": 60709,
    "ÑĸÐ´": 100272,
    "ĠPuerto": 31319,
    "Ġmainstream": 21391,
    ".Îł": 116858,
    "ÙĩØ¯Ùģ": 127905,
    "à¹Ģà¸ģ": 100657,
    "ĠBoxFit": 70454,
    "construct": 7750,
    "Ġverte": 67861,
    "_detection": 58605,
    "Ġgolf": 19665,
    "ĠØ¢ÙĦØ§Øª": 118609,
    "Ġsubsid": 25905,
    "Ġï¼¼": 101326,
    "ĠMÃ¼dÃ¼r": 110869,
    "photo": 11817,
    "Äįka": 105710,
    "Ġchops": 91178,
    "ĠMQTT": 62524,
    ".capacity": 60268,
    "Ġecc": 34014,
    "ĠæŃ¤": 117665,
    "ĠTing": 99632,
    "irts": 20242,
    "à¸µà¸¢à¸ļ": 109063,
    "ĉbool": 7715,
    ".house": 84479,
    "_COLS": 94814,
    "depends": 59047,
    "ĠGibbs": 84651,
    "\"At": 70478,
    "Duplicate": 55079,
    "ĠÏħÏĢÎ¬ÏģÏĩÎ¿ÏħÎ½": 126868,
    "ĠÂłĊ": 106050,
    "ĠLite": 41965,
    "-public": 57571,
    "Ġváº¥n": 103357,
    "ier": 1291,
    "*C": 78204,
    "966": 25285,
    "isine": 106296,
    "operators": 33938,
    "tabs": 32093,
    "gregate": 14574,
    "ĠCatherine": 42663,
    "Ġprotesting": 59310,
    "Ø¨Ø±Ø¯": 105511,
    "à¤¼à¥į": 118758,
    "(factor": 96399,
    "Ġprotects": 36236,
    "Ġrapport": 39474,
    "Ġsort": 3460,
    "Ġcapacitor": 85525,
    "Ġyas": 106989,
    "V": 53,
    "Qi": 97275,
    "åĬŀåħ¬": 118080,
    "ĠÐ³Ð¾Ð´": 100739,
    "Verbose": 64504,
    "ĠbÃ¶lg": 104830,
    "End": 3812,
    "propTypes": 88093,
    "Ġà¸¨à¸£": 127393,
    "006": 11030,
    "ĠëĮĢíķľ": 102597,
    ".LogWarning": 95010,
    "Ġneur": 21850,
    "Ġvoiture": 81645,
    "Lens": 99205,
    "ĠÐĴÑģ": 114113,
    "appropri": 76571,
    "elerinin": 110759,
    "vf": 46341,
    "ĠÐ¿ÑĢÐ¾Ð²": 62315,
    "Ġhandguns": 99636,
    ".TRUE": 75452,
    "erseniz": 126935,
    "plate": 1787,
    "_corpus": 95326,
    "unakan": 95204,
    "à¸¸à¸¥": 105910,
    "Ġ\"@\"": 97948,
    "Ø¯Ø±Ø³": 123610,
    "ĠPike": 69829,
    "Ġshorten": 74481,
    "_PK": 64998,
    "ĠÐ²Ð¸ÑĢÐ¾Ð±Ð½Ð¸ÑĨÑĤÐ²Ð°": 120393,
    "ĠNháº¥t": 127795,
    "ÐºÐ°Ð¶": 119921,
    "Ġobjedn": 118770,
    "áº§n": 70711,
    "Ġwaged": 92500,
    ".DataAnnotations": 28794,
    "_TypeDef": 91820,
    "ql": 1498,
    "ÙĴÙĩ": 115807,
    "Ú©ØªØ±": 105240,
    "ĠÐ¿ÐµÑĢÐµÐ¶": 121176,
    "ĠëĮĢêµ¬": 124780,
    "styled": 23696,
    "åĥı": 66201,
    "ĠsessionStorage": 51243,
    "åĳ½åĳ¨æľŁ": 63397,
    "Ġloi": 82291,
    "ĠGomez": 63398,
    "(ts": 36964,
    ".qt": 76542,
    "'])Ċ": 7519,
    "=\\\"": 4162,
    "_MetaData": 76316,
    "dropdown": 11385,
    "Grand": 41251,
    "ARE": 4577,
    "\\Queue": 74397,
    "çĭ¬ç«ĭ": 118326,
    "ĠAtmospheric": 87597,
    "ĠPropertyChangedEventArgs": 93216,
    "prefs": 62063,
    "Ġvend": 19189,
    "ĠØ¨Ø±Ø§ÛĮ": 100730,
    "ewater": 48544,
    "à¹īà¸²à¸¡": 108384,
    "orent": 69625,
    "ecs": 54817,
    "_End": 51053,
    "'\"Ċ": 42265,
    "_specs": 72300,
    "ĠÅŁark": 113724,
    "Ġloneliness": 75040,
    "blems": 22442,
    "mousemove": 61177,
    "Ġretreated": 92037,
    "aken": 3448,
    "Bron": 42059,
    "Ġcomplimentary": 54428,
    "ĠzakÃ¡z": 121660,
    "abcdefghijklmnop": 66202,
    ",ll": 80218,
    "se": 325,
    ".rx": 46448,
    "ungs": 29222,
    "Ġresponsiveness": 100039,
    "Ġdoktor": 114899,
    "Ġç¾İåĽ½": 123521,
    "Ġdelivering": 24944,
    "ĠØ§ÙĦØ³ÙĬ": 108461,
    "Ġbrightest": 72021,
    "ĠØ¢ÙĨØ¬Ø§": 123247,
    "èŃ¦å¯Ł": 119642,
    "ĠOE": 56630,
    "Ġaccordingly": 28178,
    "Ġoffset": 4445,
    "/process": 87880,
    "%.": 14697,
    "å£°": 71174,
    "=sum": 69915,
    "_ub": 67894,
    "éĸĭ": 87447,
    "_ev": 44813,
    "Ġesports": 81550,
    "ystems": 95890,
    "ĠdÃ¼n": 102963,
    "_pwm": 72085,
    "<len": 57788,
    "anan": 29718,
    "Ġrespectable": 62486,
    "Ġheal": 27661,
    "ZF": 91914,
    "ĠÐ»Ð¸Ð±Ð¾": 110127,
    "ÐµÐ½Ð·": 109061,
    "Ġgrande": 25626,
    "@Service": 32976,
    "ĠØ¨Ø§ÙĬØ¯": 126968,
    "ĠÐºÐ½Ð¸": 106464,
    "Ġbouncing": 65128,
    "ÑįÐ½": 116096,
    "cohol": 11353,
    "ëıħ": 104841,
    "Ġresponsable": 77932,
    "Ġrolls": 28473,
    "rob": 23576,
    "antwort": 70146,
    "æ¯Ķ": 57106,
    "la": 4355,
    "Ġoperations": 7677,
    "CppType": 46455,
    "Ġinconsistency": 97249,
    "Ġvegan": 30249,
    "ĉmeta": 85104,
    "_FOCUS": 97729,
    "*scale": 90856,
    "5": 20,
    "acebook": 4598,
    ".putInt": 64251,
    "ĠLakers": 47596,
    "Ġundergraduate": 41534,
    "ĠPAT": 45470,
    "_don": 75074,
    "activ": 9035,
    "icture": 3911,
    "+a": 57939,
    "AccessToken": 38749,
    "Outdoor": 99635,
    "_PWM": 51559,
    "ĠÃ¶nÃ¼nde": 117610,
    "ĠÐ¼Ð°ÑĶ": 104260,
    "ched": 2454,
    "etable": 36164,
    "Ġtrivia": 74032,
    "Ġéĥ½": 117303,
    ">>)": 86702,
    "ĠGeorge": 10058,
    "Ġapparatus": 41705,
    "ĠUkrainian": 34725,
    "FF": 1785,
    "Urls": 16012,
    "Ġscape": 99113,
    "ĠSno": 93771,
    "stro": 97041,
    "ãĢĢãĢĢãĢĢãĢĢãĢĢãĢĢãĢĢ": 101628,
    "ĠMusik": 76510,
    "à¤¿à¤®": 101877,
    "aÅŁÄ±": 116717,
    "Ġbra": 20716,
    "Ø§ÙħØ©": 107085,
    "ĠØ²ÙĬ": 113323,
    "alleng": 34869,
    "âĢ¦.": 21060,
    "_identity": 47344,
    "Ġpromoter": 66642,
    "vertis": 10429,
    "ĠDanielle": 72716,
    "ĠAbd": 30738,
    "Ġznaj": 68815,
    ".geom": 56305,
    "857": 20907,
    "ĠÙħÙĨØ²ÙĦ": 127894,
    "*ft": 55312,
    "Chain": 19368,
    "ubishi": 63320,
    "å±ķç¤º": 127950,
    "ĠFather": 20941,
    "ĠÐ´Ð²Ð¾ÑĢ": 115416,
    ".spaceBetween": 84865,
    "ĠDustin": 79418,
    "Ġengineers": 25175,
    "_enqueue": 29495,
    "ĠHB": 40801,
    "Ġbeiden": 70891,
    "_STREAM": 24500,
    "=random": 80917,
    "Finding": 52522,
    "ĠTransmission": 48125,
    "ĠTransition": 38821,
    "ĠÐĺÐ½": 107318,
    "onu": 106072,
    "/common": 11610,
    "Modes": 71135,
    "_UNICODE": 76788,
    "requirements": 71226,
    "ĠCob": 47051,
    "Ġdictates": 80330,
    "Ġscanner": 21438,
    "_INPUT": 21698,
    "ÑĢÐ¾Ñī": 121516,
    "Ø¨ÛĮÙĨ": 110879,
    "Classes": 20678,
    "RESOURCE": 55360,
    "à¹ģà¸ŀà¸£": 126334,
    "_subplot": 58078,
    "ĠDIST": 37203,
    "ĠÐ¡ÑĤÐ°ÑĢ": 123065,
    "abox": 77834,
    "Ġservers": 16692,
    "Ġtoen": 100134,
    "ĉĠĠĠĠĠĠĠĠĠĠĠĠĠĠĠĠĠĠĠĠĠĠĠĠĠĠĠ": 76405,
    "Ġlocks": 32776,
    "Ġdecline": 18174,
    ".translation": 54744,
    "Ġdev": 3567,
    ".sl": 26157,
    "QRSTUV": 72960,
    "Ø§Ø±Ø´": 116754,
    "Ġspots": 19300,
    "Ġà¸¿": 124992,
    "RESSION": 82763,
    "ãģĨãĤĵ": 126699,
    "Ġresponses": 14847,
    "(actions": 50354,
    ".localPosition": 51429,
    "ĠWayback": 105761,
    "Ġgraft": 69413,
    "ĠMULTI": 83837,
    "uar": 19253,
    "Circular": 83540,
    "nete": 117060,
    "Ġaraya": 122053,
    "Ġtimezone": 35057,
    "ĠMANAGEMENT": 94378,
    "pbs": 27106,
    "recipe": 26273,
    "ÐĿÐ¯": 126174,
    "Ġplantation": 83052,
    "starting": 40389,
    "egration": 17831,
    "ÐºÐ¾Ð²Ð¾ÑĹ": 119907,
    "ĠÙĥ": 88041,
    "ĠProgramm": 75010,
    "Ġä¸ĩåħĥ": 125116,
    ".drawLine": 69608,
    "vrolet": 38420,
    "percent": 25426,
    "dma": 46081,
    "ãĥķ": 52591,
    "Ġ**Ċ": 38014,
    "_bet": 92845,
    "ĠÙĨ": 51343,
    "////////": 1165,
    "mostly": 63995,
    "ynamic": 5148,
    "Ġà¤µà¤¸": 116478,
    ")\">": 70557,
    ".listdir": 33576,
    "Ġhammered": 93124,
    "éłĵ": 124685,
    "Ġitaliani": 80549,
    "Ġsparked": 41544,
    "ferred": 5671,
    "16": 845,
    "stead": 43280,
    "ĠRule": 18592,
    "Ġclocks": 51437,
    "ĠLottery": 73337,
    "Ġmight": 2643,
    "Pitch": 48171,
    "âĢİ": 79338,
    "íĻķ": 111372,
    ",w": 25576,
    "à¸£à¸²à¸°": 110232,
    "ĠWR": 25321,
    "Ġederek": 113733,
    "(typeof": 12043,
    ".:.:": 100421,
    "ĠOM": 48437,
    ":semicolon": 47817,
    "TouchEvent": 85044,
    "Ġlibre": 48647,
    "@pytest": 34963,
    "Ġskeletal": 69397,
    "laÅŁtÄ±r": 107539,
    "oulouse": 67730,
    "vetica": 32312,
    "_Pro": 17084,
    "lady": 121466,
    "ĠBirliÄŁi": 117578,
    "âĢĤ": 112783,
    "Ġaspiring": 60213,
    ".Regular": 14803,
    "Ġreactors": 71573,
    "ELY": 50309,
    "ĠIng": 25913,
    "ĠØªØ®": 106994,
    "Ġattacks": 8951,
    "ĠÐ²Ð¸ÑģÑĤÑĥÐ¿": 116459,
    "_Link": 73520,
    "asar": 68038,
    "mandatory": 81216,
    "ActivityIndicatorView": 90393,
    "_left": 9774,
    "Ġrankings": 33407,
    "artisanlib": 81259,
    "Ġabuse": 11737,
    "Ġcalidad": 56920,
    "tru": 66353,
    "à¸Ĥà¸Ļà¸²à¸Ķ": 115102,
    "Typ": 13129,
    "Ġneurons": 34313,
    "ĠØ³ÙģÛĮØ¯": 126610,
    "Ġcoroutine": 78899,
    "ĠEncoding": 30430,
    "Ġetter": 56916,
    "ĠÙĬØ³": 117499,
    "ĠSaunders": 78317,
    "Ġsubpo": 61609,
    "ĠÐ³ÑĢÑĥÐ¿Ð¸": 119828,
    "ĠvalidationResult": 97633,
    "-ing": 85005,
    "Contr": 42537,
    "Ġtablesp": 38190,
    "Accounts": 42469,
    ".sqlite": 43267,
    "è¬Ľ": 114341,
    "æ³ķéĻ¢": 119603,
    "Cpp": 10091,
    "Expired": 55449,
    "/text": 37371,
    "cret": 4523,
    "ĠDex": 73742,
    "Ġdialect": 43379,
    "aus": 12119,
    "contres": 75950,
    "Han": 74225,
    "_PACKAGE": 56666,
    "Sc": 3407,
    "nuts": 64866,
    "ĠCrowd": 99084,
    "Ġ[{": 18973,
    "_fix": 37160,
    "ä¸ĬãģĮ": 115442,
    ":relative": 85666,
    "Ġcaptivity": 84019,
    "Ð¾ÑĤÑĮ": 112059,
    "'].'\"": 67090,
    "FromClass": 73240,
    "Ġ'@": 3542,
    "ĠThÃ¡nh": 126187,
    "Ġunpublished": 85317,
    "Ġvolt": 16798,
    "ĠÐºÑĢÐµÐ¿": 112389,
    "nar": 52757,
    "Ġmá»Ł": 106335,
    "{s": 85486,
    ",proto": 82292,
    "ÐµÐ½Ð¸Ð¸": 84198,
    "Ġcen": 66031,
    "ĠDSP": 57693,
    "Ġá¼Ĳ": 110533,
    "Ġvá»±": 104029,
    "ĠSovere": 89321,
    "permalink": 82204,
    "ĠMessageBox": 10511,
    "ĠWheeler": 61446,
    "startsWith": 59036,
    "Please": 5618,
    "ĠGenome": 82917,
    "Ġbefore": 1603,
    "Ġelasticity": 95916,
    "Password": 4981,
    "Ġdefinitive": 45813,
    "Ġped": 10696,
    "ĠFoundation": 5114,
    "Ġintensive": 37295,
    "ĠGÃ¼r": 126374,
    "ĠBufferedWriter": 64229,
    "Ø·Ùĩ": 111619,
    "ĠAli": 14925,
    "())čĊčĊ": 80289,
    "Ġrecipients": 34876,
    "Ġ''ĊĊ": 46420,
    "\"Don": 92750,
    "Distance": 15121,
    "Ġnormals": 54552,
    "ĠresultList": 72696,
    "620": 17416,
    "ĠÐ²ÐµÑĩ": 110375,
    "Ġ},ĊĊĊ": 75052,
    "ĠDropout": 82232,
    "Ġìĭ¤ìĭľ": 125744,
    "Ð²Ñĥ": 109107,
    "Ġeer": 44372,
    "_rule": 21808,
    ".fullName": 83716,
    "ĠGHz": 52405,
    "Ð¸Ð¸": 47273,
    "è¿·": 109440,
    "Cole": 99280,
    "ĠPasta": 98446,
    "ĠÐ½Ð¸Ñħ": 102807,
    "ĠADS": 65335,
    "xAD": 80547,
    "ĠNik": 22300,
    "(/\\": 28872,
    "Ġinsult": 27224,
    "ĠRibbon": 77567,
    "$\"": 93097,
    "known": 5391,
    "ĠÐ·Ð´ÑĸÐ¹ÑģÐ½ÐµÐ½Ð½Ñı": 127510,
    "ĠAudi": 40928,
    ".Parse": 9114,
    "ĠÐºÑĥÑģÑĤ": 124081,
    ".Comment": 57830,
    "Ġmmc": 85308,
    "Ú¯ÛĮØ±": 118225,
    "foreign": 29543,
    "ĠUObject": 56212,
    "ĠBenefits": 39195,
    "Ġtaxonomy": 72906,
    "getFullYear": 97885,
    "ãĢįãĢĮ": 59712,
    "ĠreprÃ©s": 71925,
    "ĠÏĢÎ±Ïģ": 104461,
    ".EndsWith": 80501,
    "nof": 27752,
    "ictory": 91133,
    "ĠÐ´Ð¾ÑģÑĤÐ°Ð²": 120537,
    ".kafka": 57538,
    "ĠLaurie": 80623,
    "ĠÙĬÙħ": 105325,
    "}');Ċ": 87421,
    "Legal": 53886,
    "----------Ċ": 14665,
    "ÑĥÑĤÑĮ": 83816,
    "ĠSergio": 66294,
    "-motion": 85349,
    "Ġtrap": 23709,
    "roveÅĪ": 110422,
    "ÎļÎ±": 118690,
    "åĺĽ": 122513,
    "Young": 41672,
    "(beta": 76983,
    "Traversal": 77376,
    "è²¸": 110726,
    "IDAD": 67244,
    "ĠXCTAssertTrue": 80562,
    "ãģªãĤĵãģ¦": 114016,
    "Ġcurso": 48192,
    "ĠDenied": 88212,
    "Ġhalk": 108946,
    "ãĤµãĥ¼": 118718,
    "ĠÐ´Ð¾Ð³Ð¾Ð²Ð¾ÑĢ": 109105,
    ".qu": 17731,
    "ĠAK": 31672,
    "Ġinds": 99613,
    "()])Ċ": 57124,
    "Pizza": 80849,
    "_il": 27841,
    "city": 9103,
    "+B": 80826,
    "è·ĿéĽ¢": 124349,
    "Ġfeminism": 53110,
    "Decimal": 11520,
    "ĠĠĠĠĠĠĠĠĠĠĠĠĠĠĠĠĠ": 1733,
    "ĠSkinny": 95324,
    "ĠOUT": 10009,
    "ÙĦÙħØ©": 118445,
    "ypress": 48701,
    "meldung": 88797,
    "(False": 23852,
    "ĠJean": 20263,
    "ĠkÃ¶": 13338,
    "cimal": 88199,
    "itizen": 94234,
    "ĠSoftware": 4476,
    "ĠTas": 45787,
    "Ġchapter": 12735,
    "Ġ;Ċ": 4485,
    "ĠCommunication": 31966,
    "ĠERA": 45120,
    "Ġcontrace": 45936,
    "Ġlocksmith": 99060,
    "ĠÄĮeskÃ¡": 116777,
    "ÏĢÎ¿Î½": 125427,
    "ÑģÐºÐ¾Ð¼Ñĥ": 122651,
    "ĠÙĩØ³Øª": 102483,
    "Ġnex": 92908,
    "leg": 1978,
    "Lt": 88760,
    ".device": 18861,
    "ĠBob": 14596,
    ".show": 5577,
    "$args": 59671,
    "ĠSpart": 49451,
    "_converter": 75173,
    "leDb": 90606,
    "itched": 93503,
    "Berlin": 95509,
    "ĉInteger": 46887,
    "Ġleaps": 84558,
    "Ġthá»ĭt": 111527,
    "IFA": 38615,
    "man": 1543,
    "cities": 54109,
    "ĠBlanco": 99923,
    "Ġamplified": 83598,
    "Ġfinely": 61802,
    ".ï¼ı": 119231,
    "Did": 7131,
    "ÙħÙĨÛĮ": 126876,
    "Ġfunc": 2988,
    "Ġrooms": 12295,
    "enburg": 55485,
    "ĠÙĬØ¹": 106097,
    "OURCES": 49548,
    "Ġobjetivo": 55326,
    "ĠUIViewController": 21447,
    "ĠØ¯ÙĨÛĮ": 112292,
    ",E": 43225,
    "TreeView": 89353,
    "SetColor": 93256,
    "á½¶": 111545,
    "stu": 61782,
    "Ġsele": 28419,
    "ĠVeg": 91013,
    "_DOCUMENT": 61684,
    "ĠPey": 73980,
    ".structure": 68436,
    "Ġseulement": 71686,
    "COR": 53420,
    "ĉerrors": 74524,
    "[]>(": 53385,
    "ĠRead": 4557,
    "Ġfelon": 81014,
    "imulator": 92603,
    "ĠëĦĪë¬´": 109748,
    "(named": 38436,
    "-under": 72207,
    "ĠJinping": 94486,
    "Ġyoktu": 120794,
    ".removeChild": 42477,
    "ĠMak": 40424,
    "ero": 2382,
    "ulin": 24292,
    "ãĥ³ãĥĲãĥ¼": 127058,
    "ãĥ»ãĥ»": 16449,
    "ĠCaption": 38700,
    ".pre": 6357,
    "Ġingres": 43764,
    "ãĤĮãģªãģĦ": 110615,
    "ĠSadece": 125816,
    "/bit": 87744,
    "æĻ¯": 86354,
    "();)": 96627,
    "ĉStatus": 59421,
    "OutputStream": 13087,
    "ĠClears": 79171,
    "Ġ_ĊĊ": 89051,
    "ĠbÃłi": 103900,
    "Ġracing": 22019,
    "ekim": 118963,
    "ĠhoÃ¡": 116361,
    "à¥ģà¤Ŀ": 106164,
    "Ã¡tica": 49602,
    "_lowercase": 94229,
    "(empty": 25195,
    "informatics": 98588,
    "_c": 669,
    "FONT": 44482,
    "ellaneous": 41242,
    "lider": 19663,
    "åİŁå§ĭ": 124586,
    "ĠGlam": 87813,
    "Ġfamine": 79054,
    "Ġsamples": 10688,
    "moment": 29699,
    "ĠÚ©Ø§ÙħÙĦØ§": 122884,
    "otation": 11867,
    ".high": 35600,
    "RG": 33460,
    "Ġìłģìļ©": 115839,
    "Ġmichael": 89006,
    "Ġbacked": 22126,
    "ĠgetWidth": 70362,
    "ĠREC": 75236,
    "Ġsafely": 21676,
    "Ġslope": 31332,
    "ĠdbHelper": 97080,
    "caling": 82652,
    "ĠÐºÐ¾Ð¼Ð¿Ð¾Ð½": 113439,
    "_validate": 43781,
    "Î´Î¬": 125158,
    "Ġchi": 26883,
    "é¥°": 115943,
    "_PLATFORM": 44319,
    "FTER": 33735,
    "ĠweakSelf": 74859,
    "Ġakce": 121396,
    "addComponent": 11521,
    "Ġration": 66901,
    "Ġsugar": 13465,
    "atform": 3410,
    "occasion": 94411,
    "println": 34755,
    "roken": 82809,
    "Ġintuition": 57351,
    "ĠnodeName": 77203,
    "ĠÐ±ÐµÑĢÐµÐ¼": 113737,
    ".Binding": 37122,
    "deviceId": 95302,
    "Ġcorner": 9309,
    "Ġgathering": 23738,
    "Ġowe": 42210,
    "Ġentitled": 20458,
    "_UNDER": 93714,
    "ĠåĽ½å®¶": 125055,
    "nÃ½mi": 108743,
    "ĠÙĪ": 38624,
    "aname": 94794,
    "Âłin": 115235,
    "Ġrib": 20735,
    "é¨ĵ": 111186,
    "UIFont": 36205,
    "Ġgenome": 33869,
    "wizard": 59693,
    "emon": 7439,
    "ĠAccessToken": 95441,
    "ynch": 69581,
    "ĠGriffith": 64640,
    "Ã©sz": 78979,
    "ĠPartner": 32413,
    "Ġnu": 11148,
    "Ġannihil": 98445,
    "Ġtvb": 87007,
    "StateManager": 84232,
    "Ġå°Ĩ": 121626,
    "ĠBeyond": 31886,
    "ĠDeus": 72885,
    "ëĮĢ": 67945,
    "ĠPhi": 64913,
    "/init": 44048,
    "Ġaan": 18962,
    "Ġappellant": 90200,
    "ĠBav": 78080,
    "Ġidols": 90861,
    "Ġsmarter": 47578,
    "_boxes": 39484,
    "_menu": 10620,
    "Fant": 57634,
    "eking": 59952,
    "']);": 23137,
    "Ġsorun": 105997,
    "nos": 37491,
    "ocommerce": 24057,
    "ç±": 19630,
    "ÐµÑģÐ°": 117843,
    "pointer": 16429,
    "ĠBehind": 43474,
    "_real": 15624,
    "(result": 4556,
    "())));Ċ": 46822,
    "Ġyer": 55295,
    "Ġpec": 31100,
    "ĠÑĤÐ°ÐºÐ¶Ðµ": 102277,
    "Ġfred": 98226,
    "ĠØ§Ø±Ø²ÛĮØ§Ø¨ÛĮ": 125553,
    "ĠìĬ¤": 101266,
    "ĠsvÄĽ": 107549,
    "NgÆ°á»Ŀi": 120403,
    "æ®µ": 38574,
    "ĠCHANNEL": 59856,
    "Mono": 60046,
    "ĠØµØ§Ø¯": 115529,
    "idget": 2049,
    "commended": 36971,
    "PU": 6459,
    "Za": 119954,
    "ĠHAPP": 87877,
    "ĠEssay": 27047,
    "ĠìĹĨëĭ¤": 118318,
    "çľŁæŃ£": 124636,
    "Ð°ÑĤÐºÐ¸": 124296,
    "_pdf": 41048,
    "ê¹": 84291,
    "ĠQModelIndex": 49699,
    "ĠJButton": 28216,
    "_Dec": 79768,
    "ĠartÄ±r": 112725,
    "à¹Ĥà¸Ľà¸£": 108810,
    "_ACTION": 22624,
    "Ð¾Ð´Ð¾": 105491,
    "ĠÏĢÎµÏģ": 106952,
    "Ã¡tis": 72706,
    "Ġhappened": 7077,
    "athering": 83895,
    "æĮĤ": 116796,
    "ĠMixer": 72392,
    "Struct": 9609,
    "(val": 9276,
    "Ġistedi": 108828,
    "ĠØªØ±ÛĮÙĨ": 114694,
    "ĠPrepared": 88267,
    "Ġerk": 89866,
    "LOW": 9628,
    "Ġasia": 84599,
    "cean": 11455,
    "Ġpersonal": 4443,
    "Ġprofessionals": 15749,
    "ĠÐ¿Ð¾ÑıÑģ": 109389,
    "Ġdefended": 35844,
    "Ġpromoted": 30026,
    "Ġsemester": 34253,
    "Ġyearly": 45370,
    "infinity": 81116,
    "-last": 61615,
    "quotelev": 31960,
    "sharing": 84746,
    "åĲĮãģĺ": 112361,
    "vÃŃce": 122106,
    "ĠHealthcare": 39435,
    "Ø§ÙĨØ§": 111147,
    "\\f": 65626,
    ".OP": 82663,
    "simple": 23796,
    "ìļ´": 94772,
    "Ð°Ð½Ð³": 118352,
    "ãĢįĊĊ": 29681,
    "ĠGenetic": 75226,
    "ÏģÎ¹": 100440,
    "Ġprecinct": 68999,
    "Ġcnn": 61558,
    "ÏĤ": 46742,
    "ĉST": 61931,
    "_extension": 32135,
    "Ġobsess": 56359,
    "Ġsteel": 9699,
    "à¸Ńà¸ĩà¸Īà¸²à¸ģ": 115562,
    "Ġpro": 463,
    "ĠOMAP": 95636,
    "]\\\\": 88020,
    "meniz": 119413,
    "Ġprinter": 23185,
    ".spec": 29426,
    "æ¸¬": 108867,
    "Ġdetr": 35453,
    "Ġceremon": 43612,
    "ĠRuiz": 90983,
    "}\\": 11281,
    "Ġappoint": 9732,
    "-owned": 29799,
    "_nsec": 66088,
    "ĠGentle": 74569,
    "ĠNotImplemented": 22273,
    "Experiment": 78880,
    "TintColor": 69882,
    "Ġneh": 69553,
    "Recv": 64583,
    "onse": 117636,
    ".Pe": 61971,
    "ĠmContext": 39774,
    "Ġnombre": 13026,
    "....": 1975,
    ".nextElement": 79611,
    "templates": 15827,
    "FilePath": 19634,
    "à¹ĩà¸ļà¹Ħà¸ĭà¸ķ": 115082,
    "auer": 28196,
    "Ġhac": 54795,
    "<tag": 17224,
    "Areas": 72337,
    "ĠdoInBackground": 72940,
    "ĠAud": 15416,
    "Ġforwarded": 53346,
    "ĠçĦ": 105656,
    "Ġmomento": 31221,
    "}><": 72120,
    "Ġarreglo": 81681,
    "53": 4331,
    "_Checked": 49718,
    "_children": 32306,
    "_TLS": 70167,
    "Deploy": 70564,
    "Ġnice": 6555,
    "...\");ĊĊ": 94147,
    "ONLY": 32192,
    "Ġspeculative": 66836,
    "Ġwallpapers": 82995,
    "(namespace": 53497,
    "ĠParr": 81630,
    "ĠForce": 11994,
    "()\",": 51614,
    "Ġcatchy": 86605,
    "ĠkÃ¶nnen": 20649,
    "ī": 231,
    "Har": 27588,
    "(choice": 57491,
    "Nano": 84919,
    "Ġwaste": 12571,
    "OPS": 36746,
    "çľĭçĿĢ": 120443,
    "RDD": 98168,
    "udging": 88412,
    "łíĥĿ": 76232,
    "ÑĸÐºÐ°": 111534,
    "ĠTonight": 55314,
    "_written": 73503,
    "Ã¤tt": 50291,
    "ĠìĥĿíĻľ": 120376,
    "_ary": 83319,
    "ÐµÐ¼Ñĥ": 103199,
    "(FILE": 34393,
    "Ġnhau": 103321,
    ".Rec": 21259,
    "ĠKylie": 98264,
    ".nombre": 33677,
    "yun": 43520,
    "à¹Įà¸ļ": 117603,
    "_SN": 48360,
    "[]>Ċ": 92927,
    "ĉTEST": 55735,
    "ĠDani": 30639,
    "ĠSm": 4487,
    "Ġboton": 80567,
    "Ġperformance": 5178,
    "Ġunsett": 68770,
    "Para": 31305,
    ".utils": 8576,
    "Ġconcerned": 11920,
    ".choose": 79924,
    ")set": 48003,
    "ìĤ¬ë¬´": 121304,
    "Ġwriteln": 82047,
    "Ġobserv": 9466,
    "Ġprescribed": 32031,
    "leness": 77319,
    "ĠPrograms": 38716,
    "ĠEventBus": 90667,
    "win": 7678,
    "irting": 68039,
    "Ġdisparate": 85129,
    "Ġbroke": 14760,
    "ĠEuras": 88177,
    "ĠÙĩØ§ÛĮ": 100710,
    "_SRV": 97090,
    "auf": 51628,
    "Ġestudiantes": 98822,
    "Russian": 48807,
    "Ġober": 92345,
    "addColumn": 48892,
    "ĠChurches": 94641,
    "():Ċ": 4019,
    "áº¹p": 104307,
    "(sm": 56380,
    "Ġexercised": 62113,
    "ÑģÑĤÑĢÑĥ": 105981,
    "ĠRomance": 52256,
    "dense": 81386,
    "ÙİÙģ": 117800,
    "Ġ*\"": 92304,
    "ĠÐ±ÑĭÐ»Ð°": 105129,
    ".POS": 76062,
    "è¨Ģãģ£ãģŁ": 115791,
    "ì½ľ": 111411,
    "ĠFirmware": 81930,
    "ĠLevy": 68290,
    "Ġcouleur": 76651,
    "Ġpolis": 127125,
    "backs": 25082,
    "ĠìĻĶ": 127441,
    "fur": 84001,
    "ĠvÃ¥": 59409,
    "VERIFY": 47323,
    "Ġidentifier": 13110,
    "ĠÙĪØŃØ¯Ø©": 122841,
    "çĤ": 100479,
    "-des": 25520,
    "ê³¼ìĿĺ": 125701,
    "ĠLindsey": 65379,
    "ĠPoz": 80085,
    "Ġinteresting": 7185,
    "ĠCups": 79206,
    "REGISTER": 47402,
    "Ġwenig": 71087,
    "ĠUNU": 68025,
    "ä¾§": 116067,
    "ĠØ¨Ø´ÙĥÙĦ": 113103,
    "ÑĥÑİÑī": 72119,
    "ÑĢÐ¸Ð²": 105251,
    ".view": 3877,
    ".IM": 49029,
    "_CPU": 30841,
    "åŃ¦æł¡": 104575,
    ".getChannel": 100161,
    "ĠCLOCK": 85143,
    "æīĢä»¥": 105123,
    "à¹Ĥà¸Ĺ": 116329,
    "iciary": 27911,
    "à¹ģà¸«à¸Ļ": 113446,
    ".Translate": 61342,
    "ĠHigh": 5234,
    "Ġlain": 51476,
    "ĠÐłÐ¾Ð¼": 121743,
    "finder": 34439,
    ".Dis": 10376,
    "ĠÐ½Ð°ÑħÐ¾Ð´": 106170,
    "ĠØ¹Ø¨": 108517,
    "tries": 4646,
    ".entity": 9926,
    "à¤Ĥà¤¬": 102829,
    "ĠASF": 47368,
    "_rectangle": 62947,
    "atement": 5722,
    "Ġhmac": 84456,
    "nen": 12778,
    "Ġnormalized": 30510,
    "rosso": 33312,
    "Ġaccuses": 87156,
    "ĠPresident": 4900,
    "Ra": 56635,
    "ore": 461,
    "imbus": 96316,
    "Ġdop": 27420,
    "_SIGN": 37827,
    "frey": 76331,
    "çķ": 40198,
    "à¸¸à¸ĵ": 101913,
    "_EOF": 90387,
    "ĠÑģÐ¾Ð»ÑĮ": 125782,
    "Ġurlparse": 81167,
    "ĠÑģÑĤÐ°Ð½": 104209,
    "Ja": 53545,
    "#a": 14213,
    "Ġdoivent": 97569,
    "dae": 90284,
    "\\Response": 16200,
    "xford": 23382,
    "Ġrocky": 56617,
    "ook": 1982,
    "segue": 47206,
    "unken": 55029,
    "foo": 8134,
    "ĠÑĥÑĢÐ¾Ð²": 106314,
    "ĠæĹ¶éĹ´": 92318,
    "ĠForecast": 56775,
    ".special": 64308,
    "apers": 9724,
    "ĠTá»ķ": 116170,
    "Ġhex": 12651,
    "\\System": 85650,
    "))),": 37463,
    "ippers": 32997,
    "à¸ķà¸£à¸§": 115455,
    "åıĸãĤĬ": 108167,
    "Ġtem": 1592,
    "ĠÐ²ÑĤ": 116635,
    "*,": 12594,
    "ĠhÃ´m": 116223,
    "rat": 18071,
    "$header": 97596,
    "Slf": 73338,
    "Completed": 23559,
    "today": 31213,
    "ĠUIGraphics": 62769,
    "Ġaddicted": 57727,
    "ĠAffordable": 43606,
    "ittal": 83223,
    "Angles": 47554,
    "_rm": 59637,
    "Ð°Ð±Ð»Ð¸ÑĨ": 72805,
    "Registration": 24253,
    "currentPage": 47483,
    "ĠãĢĪ": 109487,
    "acs": 19807,
    "ĠDespite": 18185,
    "dogs": 81134,
    "Ġquáº£n": 103391,
    "à¸´à¸ĸ": 115803,
    "[P": 43447,
    "delivery": 33490,
    "Ġmultif": 62387,
    "Ġunique": 5016,
    "disconnect": 53092,
    "Ill": 52815,
    "î": 170,
    "ĠÎļÎĳÎĻ": 116569,
    "Ġí": 10997,
    "/sign": 36863,
    "!\".": 94093,
    "ĠKrank": 93070,
    "Ġhu": 34065,
    "Ġtmpl": 80939,
    "ĠÙĥØ±": 127073,
    "Ġà¤Ń": 100348,
    "Ġprotocol": 11766,
    "ingle": 2222,
    "_qty": 35958,
    "dns": 46326,
    "ĠUM": 58222,
    "encia": 8968,
    "(run": 39872,
    "Vers": 85056,
    "Ġrobotic": 59101,
    "ĠBakan": 108027,
    "à¸¢": 35609,
    "ÑģÐµÐ´": 122413,
    "Ġamusement": 62468,
    "ĠmainBundle": 78358,
    "Goals": 94917,
    "ÅĽci": 18980,
    "ATOR": 12121,
    "éļ¾": 105142,
    "ĠÎľ": 100552,
    "ĠBasically": 41812,
    "Î³ÏĮ": 120067,
    "ĠPUBLIC": 32516,
    "ÑĩÑĥÐº": 125278,
    "ĠInjection": 54911,
    "Ġpatents": 46997,
    "ADDING": 53578,
    "ĠZum": 72574,
    "ĠÙ¾ÙĪØ´": 114426,
[...]
